{
  "version": "1.0",
  "truncation": null,
  "padding": null,
  "added_tokens": [
    {
      "id": 0,
      "content": "[UNK]",
      "single_word": false,
      "lstrip": false,
      "rstrip": false,
      "normalized": false,
      "special": true
    },
    {
      "id": 1,
      "content": "[PAD]",
      "single_word": false,
      "lstrip": false,
      "rstrip": false,
      "normalized": false,
      "special": true
    },
    {
      "id": 2,
      "content": "[CLS]",
      "single_word": false,
      "lstrip": false,
      "rstrip": false,
      "normalized": false,
      "special": true
    },
    {
      "id": 3,
      "content": "[SEP]",
      "single_word": false,
      "lstrip": false,
      "rstrip": false,
      "normalized": false,
      "special": true
    },
    {
      "id": 4,
      "content": "[MASK]",
      "single_word": false,
      "lstrip": false,
      "rstrip": false,
      "normalized": false,
      "special": true
    }
  ],
  "normalizer": {
    "type": "Sequence",
    "normalizers": [
      {
        "type": "NFD"
      },
      {
        "type": "Lowercase"
      },
      {
        "type": "StripAccents"
      }
    ]
  },
  "pre_tokenizer": {
    "type": "Whitespace"
  },
  "post_processor": {
    "type": "TemplateProcessing",
    "single": [
      {
        "SpecialToken": {
          "id": "[CLS]",
          "type_id": 0
        }
      },
      {
        "Sequence": {
          "id": "A",
          "type_id": 0
        }
      },
      {
        "SpecialToken": {
          "id": "[SEP]",
          "type_id": 0
        }
      }
    ],
    "pair": [
      {
        "SpecialToken": {
          "id": "[CLS]",
          "type_id": 0
        }
      },
      {
        "Sequence": {
          "id": "A",
          "type_id": 0
        }
      },
      {
        "SpecialToken": {
          "id": "[SEP]",
          "type_id": 0
        }
      },
      {
        "Sequence": {
          "id": "B",
          "type_id": 1
        }
      },
      {
        "SpecialToken": {
          "id": "[SEP]",
          "type_id": 1
        }
      }
    ],
    "special_tokens": {
      "[CLS]": {
        "id": "[CLS]",
        "ids": [
          2
        ],
        "tokens": [
          "[CLS]"
        ]
      },
      "[SEP]": {
        "id": "[SEP]",
        "ids": [
          3
        ],
        "tokens": [
          "[SEP]"
        ]
      }
    }
  },
  "decoder": {
    "type": "WordPiece",
    "prefix": "##",
    "cleanup": true
  },
  "model": {
    "type": "WordPiece",
    "unk_token": "[UNK]",
    "continuing_subword_prefix": "##",
    "max_input_chars_per_word": 100,
    "vocab": {
      "[UNK]": 0,
      "[PAD]": 1,
      "[CLS]": 2,
      "[SEP]": 3,
      "[MASK]": 4,
      "!": 5,
      "\"": 6,
      "#": 7,
      "$": 8,
      "%": 9,
      "&": 10,
      "'": 11,
      "(": 12,
      ")": 13,
      "*": 14,
      "+": 15,
      ",": 16,
      "-": 17,
      ".": 18,
      "/": 19,
      "0": 20,
      "1": 21,
      "2": 22,
      "3": 23,
      "4": 24,
      "5": 25,
      "6": 26,
      "7": 27,
      "8": 28,
      "9": 29,
      ":": 30,
      ";": 31,
      "<": 32,
      "=": 33,
      ">": 34,
      "?": 35,
      "@": 36,
      "[": 37,
      "\\": 38,
      "]": 39,
      "^": 40,
      "_": 41,
      "`": 42,
      "a": 43,
      "b": 44,
      "c": 45,
      "d": 46,
      "e": 47,
      "f": 48,
      "g": 49,
      "h": 50,
      "i": 51,
      "j": 52,
      "k": 53,
      "l": 54,
      "m": 55,
      "n": 56,
      "o": 57,
      "p": 58,
      "q": 59,
      "r": 60,
      "s": 61,
      "t": 62,
      "u": 63,
      "v": 64,
      "w": 65,
      "x": 66,
      "y": 67,
      "z": 68,
      "{": 69,
      "|": 70,
      "}": 71,
      "~": 72,
      "": 73,
      "£": 74,
      "©": 75,
      "«": 76,
      "­": 77,
      "®": 78,
      "¯": 79,
      "°": 80,
      "²": 81,
      "³": 82,
      "´": 83,
      "µ": 84,
      "·": 85,
      "º": 86,
      "»": 87,
      "¼": 88,
      "¿": 89,
      "×": 90,
      "ß": 91,
      "æ": 92,
      "ð": 93,
      "ø": 94,
      "þ": 95,
      "đ": 96,
      "ħ": 97,
      "ı": 98,
      "ĳ": 99,
      "ł": 100,
      "ŋ": 101,
      "œ": 102,
      "ƣ": 103,
      "ɐ": 104,
      "ɔ": 105,
      "ɕ": 106,
      "ə": 107,
      "ɛ": 108,
      "ɡ": 109,
      "ɪ": 110,
      "ʁ": 111,
      "ʃ": 112,
      "ʌ": 113,
      "ʔ": 114,
      "ʰ": 115,
      "ʻ": 116,
      "ʿ": 117,
      "ˈ": 118,
      "ː": 119,
      "΄": 120,
      "α": 121,
      "β": 122,
      "γ": 123,
      "δ": 124,
      "ε": 125,
      "ζ": 126,
      "η": 127,
      "θ": 128,
      "ι": 129,
      "κ": 130,
      "λ": 131,
      "μ": 132,
      "ν": 133,
      "ξ": 134,
      "ο": 135,
      "π": 136,
      "ρ": 137,
      "ς": 138,
      "σ": 139,
      "τ": 140,
      "υ": 141,
      "φ": 142,
      "χ": 143,
      "ψ": 144,
      "ω": 145,
      "а": 146,
      "б": 147,
      "в": 148,
      "г": 149,
      "д": 150,
      "е": 151,
      "ж": 152,
      "з": 153,
      "и": 154,
      "к": 155,
      "л": 156,
      "м": 157,
      "н": 158,
      "о": 159,
      "п": 160,
      "р": 161,
      "с": 162,
      "т": 163,
      "у": 164,
      "ф": 165,
      "х": 166,
      "ц": 167,
      "ч": 168,
      "ш": 169,
      "ъ": 170,
      "ы": 171,
      "ь": 172,
      "э": 173,
      "ю": 174,
      "я": 175,
      "і": 176,
      "ј": 177,
      "ћ": 178,
      "џ": 179,
      "ғ": 180,
      "ҕ": 181,
      "җ": 182,
      "қ": 183,
      "ң": 184,
      "ҧ": 185,
      "ҫ": 186,
      "ү": 187,
      "ҳ": 188,
      "ӏ": 189,
      "ә": 190,
      "ө": 191,
      "ӷ": 192,
      "ա": 193,
      "գ": 194,
      "ե": 195,
      "ի": 196,
      "ծ": 197,
      "կ": 198,
      "հ": 199,
      "ղ": 200,
      "մ": 201,
      "յ": 202,
      "ն": 203,
      "շ": 204,
      "ո": 205,
      "չ": 206,
      "պ": 207,
      "ջ": 208,
      "ս": 209,
      "վ": 210,
      "տ": 211,
      "ր": 212,
      "ւ": 213,
      "ք": 214,
      "א": 215,
      "ב": 216,
      "ד": 217,
      "ה": 218,
      "ו": 219,
      "ז": 220,
      "ח": 221,
      "י": 222,
      "ל": 223,
      "ם": 224,
      "ן": 225,
      "נ": 226,
      "ס": 227,
      "ע": 228,
      "פ": 229,
      "ק": 230,
      "ר": 231,
      "ש": 232,
      "ת": 233,
      "ء": 234,
      "ا": 235,
      "ب": 236,
      "ة": 237,
      "ت": 238,
      "ث": 239,
      "ج": 240,
      "ح": 241,
      "خ": 242,
      "د": 243,
      "ذ": 244,
      "ر": 245,
      "ز": 246,
      "س": 247,
      "ش": 248,
      "ص": 249,
      "ط": 250,
      "ع": 251,
      "غ": 252,
      "ف": 253,
      "ق": 254,
      "ك": 255,
      "ل": 256,
      "م": 257,
      "ن": 258,
      "ه": 259,
      "و": 260,
      "ى": 261,
      "ي": 262,
      "پ": 263,
      "چ": 264,
      "ک": 265,
      "گ": 266,
      "ی": 267,
      "ە": 268,
      "ۼ": 269,
      "ܐ": 270,
      "ܒ": 271,
      "ܘ": 272,
      "ܝ": 273,
      "ܡ": 274,
      "ܢ": 275,
      "ܥ": 276,
      "ܦ": 277,
      "ܩ": 278,
      "ܪ": 279,
      "ݝ": 280,
      "ݣ": 281,
      "ड": 282,
      "ण": 283,
      "त": 284,
      "प": 285,
      "म": 286,
      "र": 287,
      "स": 288,
      "ह": 289,
      "উ": 290,
      "জ": 291,
      "ন": 292,
      "ম": 293,
      "য": 294,
      "র": 295,
      "হ": 296,
      "ક": 297,
      "ગ": 298,
      "ચ": 299,
      "દ": 300,
      "ધ": 301,
      "ન": 302,
      "પ": 303,
      "બ": 304,
      "મ": 305,
      "ર": 306,
      "સ": 307,
      "હ": 308,
      "ก": 309,
      "ช": 310,
      "ณ": 311,
      "ต": 312,
      "ท": 313,
      "น": 314,
      "ร": 315,
      "ว": 316,
      "ษ": 317,
      "་": 318,
      "ག": 319,
      "ང": 320,
      "ཇ": 321,
      "ད": 322,
      "ཕ": 323,
      "བ": 324,
      "མ": 325,
      "འ": 326,
      "ར": 327,
      "ལ": 328,
      "ས": 329,
      "ა": 330,
      "ბ": 331,
      "გ": 332,
      "დ": 333,
      "ე": 334,
      "ვ": 335,
      "ზ": 336,
      "თ": 337,
      "ი": 338,
      "კ": 339,
      "ლ": 340,
      "მ": 341,
      "ნ": 342,
      "ო": 343,
      "პ": 344,
      "რ": 345,
      "ს": 346,
      "ტ": 347,
      "უ": 348,
      "ფ": 349,
      "ქ": 350,
      "ყ": 351,
      "შ": 352,
      "ჩ": 353,
      "ც": 354,
      "ძ": 355,
      "წ": 356,
      "ჭ": 357,
      "ხ": 358,
      "ჯ": 359,
      "ᄀ": 360,
      "ᄃ": 361,
      "ᄅ": 362,
      "ᄆ": 363,
      "ᄇ": 364,
      "ᄉ": 365,
      "ᄋ": 366,
      "ᄌ": 367,
      "ᄎ": 368,
      "ᄐ": 369,
      "ᄒ": 370,
      "ᅡ": 371,
      "ᅥ": 372,
      "ᅦ": 373,
      "ᅩ": 374,
      "ᅪ": 375,
      "ᅫ": 376,
      "ᅭ": 377,
      "ᅮ": 378,
      "ᅯ": 379,
      "ᅱ": 380,
      "ᅳ": 381,
      "ᅵ": 382,
      "ᆨ": 383,
      "ᆫ": 384,
      "ᆯ": 385,
      "ᆷ": 386,
      "ᆼ": 387,
      "​": 388,
      "‌": 389,
      "‎": 390,
      "–": 391,
      "—": 392,
      "―": 393,
      "‘": 394,
      "’": 395,
      "‚": 396,
      "“": 397,
      "”": 398,
      "„": 399,
      "‟": 400,
      "†": 401,
      "•": 402,
      "…": 403,
      "′": 404,
      "€": 405,
      "₺": 406,
      "№": 407,
      "→": 408,
      "−": 409,
      "∼": 410,
      "≡": 411,
      "⊂": 412,
      "⊆": 413,
      "⋅": 414,
      "○": 415,
      "●": 416,
      "♀": 417,
      "♦": 418,
      "ⱬ": 419,
      "ⴰ": 420,
      "ⴻ": 421,
      "ⵉ": 422,
      "ⵏ": 423,
      "ⵙ": 424,
      "ⵜ": 425,
      "ⵢ": 426,
      "ⵣ": 427,
      "あ": 428,
      "い": 429,
      "え": 430,
      "お": 431,
      "か": 432,
      "し": 433,
      "ち": 434,
      "と": 435,
      "な": 436,
      "の": 437,
      "ほ": 438,
      "ゃ": 439,
      "ゆ": 440,
      "よ": 441,
      "り": 442,
      "ん": 443,
      "ィ": 444,
      "ェ": 445,
      "オ": 446,
      "カ": 447,
      "キ": 448,
      "ク": 449,
      "コ": 450,
      "サ": 451,
      "シ": 452,
      "ス": 453,
      "チ": 454,
      "ッ": 455,
      "テ": 456,
      "ト": 457,
      "ナ": 458,
      "ニ": 459,
      "フ": 460,
      "ホ": 461,
      "マ": 462,
      "ミ": 463,
      "ム": 464,
      "メ": 465,
      "ャ": 466,
      "ラ": 467,
      "リ": 468,
      "ル": 469,
      "レ": 470,
      "ロ": 471,
      "ン": 472,
      "ヶ": 473,
      "・": 474,
      "ー": 475,
      "一": 476,
      "三": 477,
      "上": 478,
      "下": 479,
      "串": 480,
      "主": 481,
      "九": 482,
      "二": 483,
      "五": 484,
      "井": 485,
      "亚": 486,
      "交": 487,
      "仁": 488,
      "仙": 489,
      "代": 490,
      "伊": 491,
      "伸": 492,
      "位": 493,
      "佐": 494,
      "保": 495,
      "倭": 496,
      "像": 497,
      "元": 498,
      "充": 499,
      "公": 500,
      "兵": 501,
      "冊": 502,
      "冠": 503,
      "刀": 504,
      "分": 505,
      "列": 506,
      "则": 507,
      "別": 508,
      "利": 509,
      "前": 510,
      "功": 511,
      "勉": 512,
      "勝": 513,
      "北": 514,
      "区": 515,
      "南": 516,
      "卧": 517,
      "原": 518,
      "叭": 519,
      "台": 520,
      "史": 521,
      "吉": 522,
      "名": 523,
      "后": 524,
      "和": 525,
      "員": 526,
      "喇": 527,
      "喜": 528,
      "四": 529,
      "国": 530,
      "土": 531,
      "地": 532,
      "坡": 533,
      "城": 534,
      "堰": 535,
      "壁": 536,
      "多": 537,
      "大": 538,
      "天": 539,
      "夹": 540,
      "奉": 541,
      "女": 542,
      "姑": 543,
      "娘": 544,
      "媚": 545,
      "子": 546,
      "孔": 547,
      "安": 548,
      "宫": 549,
      "家": 550,
      "宿": 551,
      "寇": 552,
      "寛": 553,
      "寨": 554,
      "小": 555,
      "少": 556,
      "山": 557,
      "岩": 558,
      "岭": 559,
      "峰": 560,
      "嶺": 561,
      "川": 562,
      "州": 563,
      "平": 564,
      "年": 565,
      "広": 566,
      "店": 567,
      "張": 568,
      "役": 569,
      "御": 570,
      "復": 571,
      "徳": 572,
      "心": 573,
      "忠": 574,
      "息": 575,
      "戦": 576,
      "房": 577,
      "所": 578,
      "扶": 579,
      "抜": 580,
      "护": 581,
      "摩": 582,
      "攤": 583,
      "政": 584,
      "故": 585,
      "敦": 586,
      "方": 587,
      "日": 588,
      "明": 589,
      "易": 590,
      "普": 591,
      "景": 592,
      "曌": 593,
      "曲": 594,
      "月": 595,
      "本": 596,
      "東": 597,
      "松": 598,
      "栖": 599,
      "桑": 600,
      "桶": 601,
      "棲": 602,
      "楚": 603,
      "歌": 604,
      "武": 605,
      "歴": 606,
      "毛": 607,
      "民": 608,
      "水": 609,
      "江": 610,
      "汤": 611,
      "沟": 612,
      "河": 613,
      "波": 614,
      "洞": 615,
      "涼": 616,
      "清": 617,
      "港": 618,
      "湯": 619,
      "漫": 620,
      "澤": 621,
      "濕": 622,
      "灵": 623,
      "然": 624,
      "煎": 625,
      "照": 626,
      "熊": 627,
      "熱": 628,
      "猫": 629,
      "玉": 630,
      "王": 631,
      "生": 632,
      "画": 633,
      "的": 634,
      "皇": 635,
      "直": 636,
      "省": 637,
      "瞾": 638,
      "石": 639,
      "禁": 640,
      "秀": 641,
      "第": 642,
      "簡": 643,
      "米": 644,
      "紫": 645,
      "經": 646,
      "罗": 647,
      "羅": 648,
      "美": 649,
      "老": 650,
      "胜": 651,
      "自": 652,
      "般": 653,
      "花": 654,
      "若": 655,
      "茶": 656,
      "草": 657,
      "葉": 658,
      "葵": 659,
      "薩": 660,
      "藝": 661,
      "藥": 662,
      "藩": 663,
      "蜂": 664,
      "蜜": 665,
      "行": 666,
      "衛": 667,
      "西": 668,
      "親": 669,
      "訶": 670,
      "谷": 671,
      "貓": 672,
      "貞": 673,
      "路": 674,
      "軍": 675,
      "辻": 676,
      "近": 677,
      "進": 678,
      "邊": 679,
      "邦": 680,
      "郎": 681,
      "郭": 682,
      "都": 683,
      "野": 684,
      "金": 685,
      "鍾": 686,
      "長": 687,
      "門": 688,
      "関": 689,
      "阪": 690,
      "陣": 691,
      "陵": 692,
      "陸": 693,
      "隊": 694,
      "雪": 695,
      "青": 696,
      "鞍": 697,
      "音": 698,
      "风": 699,
      "飢": 700,
      "饉": 701,
      "香": 702,
      "高": 703,
      "鸡": 704,
      "鹫": 705,
      "黑": 706,
      "黨": 707,
      "龙": 708,
      "，": 709,
      "𐊀": 710,
      "𐊆": 711,
      "𐊇": 712,
      "𐊍": 713,
      "𐊎": 714,
      "𐊐": 715,
      "𐊕": 716,
      "𐊖": 717,
      "𐊗": 718,
      "𒁕": 719,
      "𒆷": 720,
      "𒉿": 721,
      "##u": 722,
      "##n": 723,
      "##a": 724,
      "##k": 725,
      "##e": 726,
      "##r": 727,
      "##f": 728,
      "##o": 729,
      "##m": 730,
      "##s": 731,
      "##l": 732,
      "##ı": 733,
      "##d": 734,
      "##h": 735,
      "##t": 736,
      "##i": 737,
      "##w": 738,
      "##g": 739,
      "##'": 740,
      "##y": 741,
      "##v": 742,
      "##p": 743,
      "##?": 744,
      "##)": 745,
      "##z": 746,
      "##c": 747,
      "##b": 748,
      "##0": 749,
      "##9": 750,
      "##3": 751,
      "##ა": 752,
      "##მ": 753,
      "##წ": 754,
      "##ე": 755,
      "##ვ": 756,
      "##რ": 757,
      "##ი": 758,
      "##ს": 759,
      "##j": 760,
      "##澤": 761,
      "##邦": 762,
      "##8": 763,
      "##7": 764,
      "##2": 765,
      "##1": 766,
      "##4": 767,
      "##5": 768,
      "##q": 769,
      "##6": 770,
      "##\"": 771,
      "##,": 772,
      "##姑": 773,
      "##娘": 774,
      "##山": 775,
      "##自": 776,
      "##然": 777,
      "##保": 778,
      "##护": 779,
      "##区": 780,
      "##主": 781,
      "##x": 782,
      "##ł": 783,
      "##ण": 784,
      "##ड": 785,
      "##र": 786,
      "##е": 787,
      "##л": 788,
      "##а": 789,
      "##в": 790,
      "##і": 791,
      "##я": 792,
      "##.": 793,
      "##(": 794,
      "##р": 795,
      "##у": 796,
      "##с": 797,
      "##ĳ": 798,
      "##མ": 799,
      "##თ": 800,
      "##о": 801,
      "##б": 802,
      "##ж": 803,
      "##д": 804,
      "##н": 805,
      "##и": 806,
      "##ш": 807,
      "##ო": 808,
      "##ც": 809,
      "##ლ": 810,
      "##ტ": 811,
      "##უ": 812,
      "##ð": 813,
      "##ک": 814,
      "##ی": 815,
      "##م": 816,
      "##ј": 817,
      "##т": 818,
      "##_": 819,
      "##[": 820,
      "##м": 821,
      "##ⵜ": 822,
      "##​": 823,
      "##х": 824,
      "##ß": 825,
      "##ҳ": 826,
      "##ә": 827,
      "##ل": 828,
      "##و": 829,
      "##ا": 830,
      "##ق": 831,
      "##ع": 832,
      "##»": 833,
      "##}": 834,
      "##*": 835,
      "##з": 836,
      "##后": 837,
      "##ə": 838,
      "##ص": 839,
      "##ي": 840,
      "##ر": 841,
      "##ի": 842,
      "##վ": 843,
      "##ա": 844,
      "##ն": 845,
      "##س": 846,
      "##ك": 847,
      "##ن": 848,
      "##د": 849,
      "##ц": 850,
      "##к": 851,
      "##п": 852,
      "##ы": 853,
      "##!": 854,
      "##‘": 855,
      "##$": 856,
      "##г": 857,
      "##ф": 858,
      "##/": 859,
      "##ε": 860,
      "##ρ": 861,
      "##μ": 862,
      "##α": 863,
      "##ι": 864,
      "##交": 865,
      "##所": 866,
      "##æ": 867,
      "##յ": 868,
      "##ք": 869,
      "##汤": 870,
      "##熱": 871,
      "##ى": 872,
      "##ω": 873,
      "##γ": 874,
      "##ο": 875,
      "##ς": 876,
      "##ह": 877,
      "##त": 878,
      "##म": 879,
      "##岩": 880,
      "##洞": 881,
      "##κ": 882,
      "##υ": 883,
      "##τ": 884,
      "##º": 885,
      "##-": 886,
      "##>": 887,
      "##ད": 888,
      "##გ": 889,
      "##ნ": 890,
      "##ە": 891,
      "##;": 892,
      "##ч": 893,
      "##ت": 894,
      "##θ": 895,
      "##η": 896,
      "##ң": 897,
      "##ү": 898,
      "##ө": 899,
      "##画": 900,
      "##え": 901,
      "##あ": 902,
      "##ほ": 903,
      "##ー": 904,
      "##と": 905,
      "##ش": 906,
      "##ح": 907,
      "##ɛ": 908,
      "##ɔ": 909,
      "##衛": 910,
      "##–": 911,
      "##”": 912,
      "##ف": 913,
      "##ة": 914,
      "##|": 915,
      "##葉": 916,
      "##吉": 917,
      "##伸": 918,
      "##ب": 919,
      "##π": 920,
      "##δ": 921,
      "##]": 922,
      "##茶": 923,
      "##ᅦ": 924,
      "##ᆯ": 925,
      "##ᄅ": 926,
      "##ᅩ": 927,
      "##ར": 928,
      "##ᅡ": 929,
      "##ᆼ": 930,
      "##ᄋ": 931,
      "##ᅯ": 932,
      "##ᄀ": 933,
      "##ᆨ": 934,
      "##ᄃ": 935,
      "##ゃ": 936,
      "##お": 937,
      "##פ": 938,
      "##ר": 939,
      "##λ": 940,
      "##ν": 941,
      "##%": 942,
      "##ь": 943,
      "##ᅫ": 944,
      "##ᅮ": 945,
      "##𐊕": 946,
      "##𐊐": 947,
      "##𐊎": 948,
      "##𐊆": 949,
      "##𐊖": 950,
      "##平": 951,
      "##ю": 952,
      "##一": 953,
      "##復": 954,
      "##員": 955,
      "##省": 956,
      "##水": 957,
      "##河": 958,
      "##œ": 959,
      "##ქ": 960,
      "##+": 961,
      "##ʻ": 962,
      "##ბ": 963,
      "##ჩ": 964,
      "##ხ": 965,
      "###": 966,
      "##ⵣ": 967,
      "##ⵏ": 968,
      "##ⴰ": 969,
      "##ⵙ": 970,
      "##ⴻ": 971,
      "##σ": 972,
      "##<": 973,
      "##𐊍": 974,
      "##𐊀": 975,
      "##𐊇": 976,
      "##შ": 977,
      "##ག": 978,
      "##ø": 979,
      "##ː": 980,
      "##=": 981,
      "##‌": 982,
      "##“": 983,
      "##خ": 984,
      "##φ": 985,
      "##ʁ": 986,
      "##阪": 987,
      "##の": 988,
      "##役": 989,
      "##女": 990,
      "##コ": 991,
      "##ミ": 992,
      "##ッ": 993,
      "##ク": 994,
      "##ᅵ": 995,
      "##ᆷ": 996,
      "##ᄉ": 997,
      "##ᅥ": 998,
      "##ᄇ": 999,
      "##ᆫ": 1000,
      "##名": 1001,
      "##か": 1002,
      "##辻": 1003,
      "##親": 1004,
      "##兵": 1005,
      "##充": 1006,
      "##仁": 1007,
      "##音": 1008,
      "##宫": 1009,
      "##კ": 1010,
      "##カ": 1011,
      "##レ": 1012,
      "##ト": 1013,
      "##ز": 1014,
      "##玉": 1015,
      "##风": 1016,
      "##景": 1017,
      "##胜": 1018,
      "##徳": 1019,
      "##川": 1020,
      "##三": 1021,
      "##代": 1022,
      "##ᅪ": 1023,
      "##上": 1024,
      "##ه": 1025,
      "##غ": 1026,
      "##チ": 1027,
      "##ჭ": 1028,
      "##ז": 1029,
      "##ל": 1030,
      "##β": 1031,
      "##仙": 1032,
      "##ת": 1033,
      "##ו": 1034,
      "##ה": 1035,
      "##ח": 1036,
      "##ש": 1037,
      "##叭": 1038,
      "##→": 1039,
      "##{": 1040,
      "##ᅱ": 1041,
      "##ζ": 1042,
      "##藥": 1043,
      "##დ": 1044,
      "##ზ": 1045,
      "##น": 1046,
      "##ว": 1047,
      "##ต": 1048,
      "##ร": 1049,
      "##ե": 1050,
      "##ծ": 1051,
      "##մ": 1052,
      "##ո": 1053,
      "##ր": 1054,
      "##子": 1055,
      "##奉": 1056,
      "##行": 1057,
      "##ע": 1058,
      "##ם": 1059,
      "##宿": 1060,
      "##四": 1061,
      "##ᄆ": 1062,
      "##ء": 1063,
      "##:": 1064,
      "##ج": 1065,
      "##’": 1066,
      "##…": 1067,
      "##ყ": 1068,
      "##月": 1069,
      "##谷": 1070,
      "##岭": 1071,
      "##雪": 1072,
      "##老": 1073,
      "##經": 1074,
      "##ܐ": 1075,
      "##ܝ": 1076,
      "##ܩ": 1077,
      "##ʌ": 1078,
      "##ŋ": 1079,
      "##đ": 1080,
      "##@": 1081,
      "##鹫": 1082,
      "##ホ": 1083,
      "##ン": 1084,
      "##オ": 1085,
      "##リ": 1086,
      "##シ": 1087,
      "##ナ": 1088,
      "##ル": 1089,
      "##ཇ": 1090,
      "##ས": 1091,
      "##フ": 1092,
      "##ᅳ": 1093,
      "##港": 1094,
      "##易": 1095,
      "##ᄌ": 1096,
      "##ェ": 1097,
      "##小": 1098,
      "##門": 1099,
      "##大": 1100,
      "##ⵢ": 1101,
      "##摩": 1102,
      "##藩": 1103,
      "##э": 1104,
      "##ก": 1105,
      "##ษ": 1106,
      "##ณ": 1107,
      "##ヶ": 1108,
      "##原": 1109,
      "##戦": 1110,
      "##い": 1111,
      "##²": 1112,
      "##よ": 1113,
      "##し": 1114,
      "##陣": 1115,
      "##台": 1116,
      "##利": 1117,
      "##秀": 1118,
      "##元": 1119,
      "##~": 1120,
      "##נ": 1121,
      "##ב": 1122,
      "##熊": 1123,
      "##貓": 1124,
      "##棲": 1125,
      "##息": 1126,
      "##地": 1127,
      "##ƣ": 1128,
      "##€": 1129,
      "##ξ": 1130,
      "##ལ": 1131,
      "##ث": 1132,
      "##ъ": 1133,
      "##軍": 1134,
      "##刀": 1135,
      "##隊": 1136,
      "##ק": 1137,
      "##י": 1138,
      "##ւ": 1139,
      "##ղ": 1140,
      "##પ": 1141,
      "##冊": 1142,
      "##龙": 1143,
      "##沟": 1144,
      "##‎": 1145,
      "##ɐ": 1146,
      "##ʃ": 1147,
      "##ɪ": 1148,
      "##本": 1149,
      "##歴": 1150,
      "##史": 1151,
      "##和": 1152,
      "##州": 1153,
      "##江": 1154,
      "##堰": 1155,
      "##亚": 1156,
      "##罗": 1157,
      "##ધ": 1158,
      "##ャ": 1159,
      "##テ": 1160,
      "##ィ": 1161,
      "##য": 1162,
      "##উ": 1163,
      "##র": 1164,
      "##տ": 1165,
      "##կ": 1166,
      "##χ": 1167,
      "##猫": 1168,
      "##栖": 1169,
      "##ɕ": 1170,
      "##ʰ": 1171,
      "##བ": 1172,
      "##ང": 1173,
      "##ݣ": 1174,
      "##藝": 1175,
      "##ψ": 1176,
      "##қ": 1177,
      "##ս": 1178,
      "##պ": 1179,
      "##ⱬ": 1180,
      "##ذ": 1181,
      "##ძ": 1182,
      "##喜": 1183,
      "##飢": 1184,
      "##饉": 1185,
      "##年": 1186,
      "##前": 1187,
      "##的": 1188,
      "##ર": 1189,
      "##મ": 1190,
      "##ચ": 1191,
      "##દ": 1192,
      "##坡": 1193,
      "##ܪ": 1194,
      "##ܘ": 1195,
      "##ן": 1196,
      "##ᅭ": 1197,
      "##ᄎ": 1198,
      "##շ": 1199,
      "##գ": 1200,
      "##җ": 1201,
      "##郎": 1202,
      "##佐": 1203,
      "##હ": 1204,
      "##ન": 1205,
      "##સ": 1206,
      "##桶": 1207,
      "##寨": 1208,
      "##𒆷": 1209,
      "##𒉿": 1210,
      "##伊": 1211,
      "##直": 1212,
      "##政": 1213,
      "##ん": 1214,
      "##џ": 1215,
      "##ћ": 1216,
      "##民": 1217,
      "##黨": 1218,
      "##ӏ": 1219,
      "##忠": 1220,
      "##位": 1221,
      "##ғ": 1222,
      "##·": 1223,
      "##ܥ": 1224,
      "##ܡ": 1225,
      "##হ": 1226,
      "##ম": 1227,
      "##ন": 1228,
      "##金": 1229,
      "##ラ": 1230,
      "##ス": 1231,
      "##マ": 1232,
      "##野": 1233,
      "##ゆ": 1234,
      "##美": 1235,
      "##ᄐ": 1236,
      "##ɡ": 1237,
      "##曌": 1238,
      "##都": 1239,
      "##北": 1240,
      "##多": 1241,
      "##勝": 1242,
      "##串": 1243,
      "##訶": 1244,
      "##般": 1245,
      "##若": 1246,
      "##波": 1247,
      "##羅": 1248,
      "##蜜": 1249,
      "##心": 1250,
      "##城": 1251,
      "##桑": 1252,
      "##歌": 1253,
      "##寇": 1254,
      "##冠": 1255,
      "##勉": 1256,
      "##峰": 1257,
      "##პ": 1258,
      "##広": 1259,
      "##家": 1260,
      "##南": 1261,
      "##生": 1262,
      "##方": 1263,
      "##サ": 1264,
      "##则": 1265,
      "##天": 1266,
      "##像": 1267,
      "##邊": 1268,
      "##ჯ": 1269,
      "##—": 1270,
      "##店": 1271,
      "##楚": 1272,
      "##簡": 1273,
      "##陵": 1274,
      "##分": 1275,
      "##列": 1276,
      "##進": 1277,
      "##曲": 1278,
      "##ar": 1279,
      "##an": 1280,
      "##er": 1281,
      "##in": 1282,
      "##ın": 1283,
      "##en": 1284,
      "##ir": 1285,
      "##as": 1286,
      "##lar": 1287,
      "##il": 1288,
      "##ak": 1289,
      "##un": 1290,
      "##on": 1291,
      "##al": 1292,
      "##es": 1293,
      "##is": 1294,
      "##ur": 1295,
      "##el": 1296,
      "ve": 1297,
      "##da": 1298,
      "##ek": 1299,
      "##or": 1300,
      "##at": 1301,
      "##et": 1302,
      "##ul": 1303,
      "##ır": 1304,
      "##ay": 1305,
      "##de": 1306,
      "##ıl": 1307,
      "##am": 1308,
      "bir": 1309,
      "##ler": 1310,
      "##ik": 1311,
      "##us": 1312,
      "##le": 1313,
      "##ıs": 1314,
      "##ol": 1315,
      "ol": 1316,
      "##iy": 1317,
      "##ad": 1318,
      "19": 1319,
      "##im": 1320,
      "de": 1321,
      "##ında": 1322,
      "##um": 1323,
      "##it": 1324,
      "##em": 1325,
      "da": 1326,
      "al": 1327,
      "20": 1328,
      "##uk": 1329,
      "##ig": 1330,
      "##az": 1331,
      "##ık": 1332,
      "##ap": 1333,
      "##ası": 1334,
      "##lan": 1335,
      "is": 1336,
      "##ed": 1337,
      "##dı": 1338,
      "bu": 1339,
      "##ist": 1340,
      "##dan": 1341,
      "##ey": 1342,
      "ar": 1343,
      "##ları": 1344,
      "##ac": 1345,
      "##ag": 1346,
      "##inde": 1347,
      "##os": 1348,
      "##du": 1349,
      "##ya": 1350,
      "an": 1351,
      "##ab": 1352,
      "##iz": 1353,
      "##ec": 1354,
      "##lı": 1355,
      "##esi": 1356,
      "##uz": 1357,
      "bas": 1358,
      "yıl": 1359,
      "##ah": 1360,
      "in": 1361,
      "##di": 1362,
      "tar": 1363,
      "##og": 1364,
      "##larak": 1365,
      "##ım": 1366,
      "##li": 1367,
      "##ine": 1368,
      "##den": 1369,
      "##om": 1370,
      "ic": 1371,
      "##ok": 1372,
      "son": 1373,
      "##ların": 1374,
      "olarak": 1375,
      "##af": 1376,
      "##ut": 1377,
      "##ic": 1378,
      "il": 1379,
      "##ini": 1380,
      "##la": 1381,
      "kar": 1382,
      "##ilm": 1383,
      "##ez": 1384,
      "##ev": 1385,
      "##eri": 1386,
      "ile": 1387,
      "##leri": 1388,
      "##tır": 1389,
      "yap": 1390,
      "on": 1391,
      "##ti": 1392,
      "200": 1393,
      "##ma": 1394,
      "or": 1395,
      "##gı": 1396,
      "##ından": 1397,
      "##dır": 1398,
      "##lu": 1399,
      "##av": 1400,
      "tur": 1401,
      "201": 1402,
      "##mıs": 1403,
      "##tı": 1404,
      "##uc": 1405,
      "##ust": 1406,
      "ay": 1407,
      "##inin": 1408,
      "et": 1409,
      "##ra": 1410,
      "##op": 1411,
      "gor": 1412,
      "en": 1413,
      "##lik": 1414,
      "icin": 1415,
      "##dir": 1416,
      "##isi": 1417,
      "##igi": 1418,
      "##ını": 1419,
      "##man": 1420,
      "##ce": 1421,
      "##ca": 1422,
      "##ih": 1423,
      "un": 1424,
      "##oy": 1425,
      "##up": 1426,
      "kul": 1427,
      "##mak": 1428,
      "##tan": 1429,
      "##ta": 1430,
      "kur": 1431,
      "##te": 1432,
      "##lam": 1433,
      "##aki": 1434,
      "##ına": 1435,
      "##ter": 1436,
      "##gu": 1437,
      "olan": 1438,
      "##ki": 1439,
      "uz": 1440,
      "##ro": 1441,
      "##asında": 1442,
      "##iler": 1443,
      "##istir": 1444,
      "oy": 1445,
      "as": 1446,
      "yer": 1447,
      "yılında": 1448,
      "oldu": 1449,
      "bul": 1450,
      "##ekt": 1451,
      "ed": 1452,
      "##len": 1453,
      "199": 1454,
      "##les": 1455,
      "##ans": 1456,
      "es": 1457,
      "##ız": 1458,
      "##oz": 1459,
      "##adı": 1460,
      "gel": 1461,
      "taraf": 1462,
      "ilk": 1463,
      "##eler": 1464,
      "ver": 1465,
      "##ib": 1466,
      "tarih": 1467,
      "##ha": 1468,
      "##cu": 1469,
      "##ot": 1470,
      "##ip": 1471,
      "##anı": 1472,
      "sonra": 1473,
      "kon": 1474,
      "bil": 1475,
      "##yon": 1476,
      "##ci": 1477,
      "turk": 1478,
      "##aya": 1479,
      "##he": 1480,
      "par": 1481,
      "##unu": 1482,
      "don": 1483,
      "bol": 1484,
      "##iye": 1485,
      "tarafından": 1486,
      "##mıstır": 1487,
      "gen": 1488,
      "##eki": 1489,
      "##ub": 1490,
      "ad": 1491,
      "##ers": 1492,
      "##eg": 1493,
      "ul": 1494,
      "sur": 1495,
      "dog": 1496,
      "##ov": 1497,
      "##id": 1498,
      "am": 1499,
      "##ustur": 1500,
      "##cı": 1501,
      "##eb": 1502,
      "##ark": 1503,
      "kal": 1504,
      "yar": 1505,
      "kad": 1506,
      "kullan": 1507,
      "dev": 1508,
      "##eh": 1509,
      "yas": 1510,
      "##ının": 1511,
      "nin": 1512,
      "##alı": 1513,
      "##iv": 1514,
      "##lık": 1515,
      "##yla": 1516,
      "##lem": 1517,
      "bulun": 1518,
      "ak": 1519,
      "##inden": 1520,
      "gun": 1521,
      "##ması": 1522,
      "##cak": 1523,
      "te": 1524,
      "gr": 1525,
      "daha": 1526,
      "yaz": 1527,
      "cal": 1528,
      "##ayı": 1529,
      "nın": 1530,
      "##eni": 1531,
      "##las": 1532,
      "uy": 1533,
      "oz": 1534,
      "bel": 1535,
      "##tad": 1536,
      "gec": 1537,
      "##gil": 1538,
      "##unda": 1539,
      "film": 1540,
      "den": 1541,
      "buy": 1542,
      "kat": 1543,
      "er": 1544,
      "tak": 1545,
      "##dur": 1546,
      "##ısı": 1547,
      "),": 1548,
      "san": 1549,
      "the": 1550,
      "yon": 1551,
      "sah": 1552,
      "##ken": 1553,
      "##let": 1554,
      "198": 1555,
      "yay": 1556,
      "hal": 1557,
      "top": 1558,
      "ken": 1559,
      "##usu": 1560,
      "cık": 1561,
      "##ilir": 1562,
      "olm": 1563,
      "uzer": 1564,
      "ac": 1565,
      "tek": 1566,
      "##ilen": 1567,
      "##edir": 1568,
      "##tadır": 1569,
      "ın": 1570,
      "at": 1571,
      "##ayan": 1572,
      "bag": 1573,
      "fr": 1574,
      "ger": 1575,
      "##oc": 1576,
      "tan": 1577,
      "el": 1578,
      "##ing": 1579,
      "calıs": 1580,
      "##daki": 1581,
      "ayr": 1582,
      "18": 1583,
      "##00": 1584,
      "##ibi": 1585,
      "buyuk": 1586,
      "##est": 1587,
      "##gr": 1588,
      "bask": 1589,
      "##ılan": 1590,
      "##od": 1591,
      "##iyle": 1592,
      "##unun": 1593,
      "st": 1594,
      "##uv": 1595,
      "ise": 1596,
      "##aman": 1597,
      "sır": 1598,
      "##ulu": 1599,
      "mar": 1600,
      "sav": 1601,
      "##ef": 1602,
      "ek": 1603,
      "##men": 1604,
      "mu": 1605,
      "##tir": 1606,
      "av": 1607,
      "oyun": 1608,
      "pr": 1609,
      "dun": 1610,
      "##sel": 1611,
      "yuk": 1612,
      "197": 1613,
      "##bol": 1614,
      "##ektedir": 1615,
      "##if": 1616,
      "takım": 1617,
      "##maktadır": 1618,
      "tem": 1619,
      "##ildi": 1620,
      "mil": 1621,
      "ya": 1622,
      "##iyet": 1623,
      "har": 1624,
      "##st": 1625,
      "##re": 1626,
      "cok": 1627,
      "##ladı": 1628,
      "gibi": 1629,
      "##arı": 1630,
      "uc": 1631,
      "##ada": 1632,
      "pro": 1633,
      "196": 1634,
      "kay": 1635,
      "##me": 1636,
      "##eden": 1637,
      "ik": 1638,
      "veya": 1639,
      "im": 1640,
      "yak": 1641,
      "##iyon": 1642,
      "##eye": 1643,
      "##ıldı": 1644,
      "arasında": 1645,
      "ag": 1646,
      "kr": 1647,
      "kaz": 1648,
      "kars": 1649,
      "iki": 1650,
      "deg": 1651,
      "##larında": 1652,
      "##ade": 1653,
      "##deki": 1654,
      "her": 1655,
      "zaman": 1656,
      "ne": 1657,
      "##gun": 1658,
      "ev": 1659,
      "kadar": 1660,
      "##mistir": 1661,
      "var": 1662,
      "yuz": 1663,
      "ser": 1664,
      "##ogr": 1665,
      "alt": 1666,
      "##amp": 1667,
      "der": 1668,
      "##atı": 1669,
      "sek": 1670,
      "tr": 1671,
      "##ılı": 1672,
      "bolg": 1673,
      "gorev": 1674,
      "ins": 1675,
      "yonet": 1676,
      "yeni": 1677,
      "bak": 1678,
      "sec": 1679,
      "##uy": 1680,
      "mac": 1681,
      "alan": 1682,
      "##erk": 1683,
      "##ika": 1684,
      "kom": 1685,
      "hay": 1686,
      "##tur": 1687,
      "##ch": 1688,
      "eg": 1689,
      "##imi": 1690,
      "od": 1691,
      "##ligi": 1692,
      "##ob": 1693,
      "##ort": 1694,
      "donem": 1695,
      "##and": 1696,
      "ch": 1697,
      "##ia": 1698,
      "##lerin": 1699,
      "muz": 1700,
      "##lıgı": 1701,
      "ab": 1702,
      "gir": 1703,
      "ok": 1704,
      "genel": 1705,
      "kıs": 1706,
      "ozel": 1707,
      "##esinde": 1708,
      "amer": 1709,
      "##larda": 1710,
      "boy": 1711,
      "##mis": 1712,
      "##mas": 1713,
      "##iyat": 1714,
      "##gi": 1715,
      "##umu": 1716,
      "dan": 1717,
      "sez": 1718,
      "##luk": 1719,
      "195": 1720,
      "turkiye": 1721,
      "##oj": 1722,
      "kurul": 1723,
      "##inci": 1724,
      "##ivers": 1725,
      "ayn": 1726,
      "univers": 1727,
      "ayrı": 1728,
      "##mek": 1729,
      "##tal": 1730,
      "sezon": 1731,
      "nde": 1732,
      "##lara": 1733,
      "duz": 1734,
      "kap": 1735,
      "##ep": 1736,
      "##ator": 1737,
      "ancak": 1738,
      "##ret": 1739,
      "birlik": 1740,
      "sag": 1741,
      "##istan": 1742,
      "dig": 1743,
      "hak": 1744,
      "##eli": 1745,
      "kan": 1746,
      "aynı": 1747,
      "devlet": 1748,
      "##ede": 1749,
      "universit": 1750,
      "##ion": 1751,
      "##ent": 1752,
      "##larını": 1753,
      "##ri": 1754,
      "az": 1755,
      "##arak": 1756,
      "os": 1757,
      "of": 1758,
      "yan": 1759,
      "##yan": 1760,
      "##asyon": 1761,
      "aldı": 1762,
      "muh": 1763,
      "dunya": 1764,
      "sark": 1765,
      "seh": 1766,
      "yayın": 1767,
      "gos": 1768,
      "##eleri": 1769,
      "alb": 1770,
      "##mektedir": 1771,
      "gore": 1772,
      "##tr": 1773,
      "diger": 1774,
      "##erek": 1775,
      "dur": 1776,
      "kor": 1777,
      "##agı": 1778,
      "rom": 1779,
      "##bul": 1780,
      "adı": 1781,
      "tam": 1782,
      "br": 1783,
      "sp": 1784,
      "say": 1785,
      "ey": 1786,
      "fut": 1787,
      "kazan": 1788,
      "15": 1789,
      "##oloj": 1790,
      "yaptı": 1791,
      "##ten": 1792,
      "yol": 1793,
      "ort": 1794,
      "dus": 1795,
      "##lig": 1796,
      "##der": 1797,
      "##digi": 1798,
      "##ındaki": 1799,
      "##larının": 1800,
      "oldugu": 1801,
      "sahip": 1802,
      "goster": 1803,
      "futbol": 1804,
      "ogr": 1805,
      "##han": 1806,
      "ada": 1807,
      "ayrıca": 1808,
      "tas": 1809,
      "##cek": 1810,
      "haz": 1811,
      "res": 1812,
      "##ara": 1813,
      "su": 1814,
      "tarihinde": 1815,
      "istan": 1816,
      "##maya": 1817,
      "istanbul": 1818,
      "##ow": 1819,
      "##ili": 1820,
      "10": 1821,
      "194": 1822,
      "sanat": 1823,
      "##eti": 1824,
      "sal": 1825,
      "for": 1826,
      "huk": 1827,
      "##esine": 1828,
      "##lerini": 1829,
      "yuks": 1830,
      "cek": 1831,
      "kab": 1832,
      "birlikte": 1833,
      "##ley": 1834,
      "##ılır": 1835,
      "oyn": 1836,
      "ingil": 1837,
      "samp": 1838,
      "soy": 1839,
      "12": 1840,
      "##uf": 1841,
      "##larına": 1842,
      "##par": 1843,
      "ulus": 1844,
      "ulk": 1845,
      "merk": 1846,
      "##mi": 1847,
      "##mustur": 1848,
      "##ama": 1849,
      "aras": 1850,
      "koy": 1851,
      "soz": 1852,
      "merkez": 1853,
      "##yor": 1854,
      "bur": 1855,
      "alman": 1856,
      "yuksek": 1857,
      "##upa": 1858,
      "##lestir": 1859,
      "baz": 1860,
      "##istem": 1861,
      "iy": 1862,
      "iz": 1863,
      "sampiyon": 1864,
      "diz": 1865,
      "met": 1866,
      "rus": 1867,
      "##met": 1868,
      "etk": 1869,
      "ask": 1870,
      "cum": 1871,
      "avr": 1872,
      "belir": 1873,
      "lig": 1874,
      "##ilmistir": 1875,
      "mad": 1876,
      "##alık": 1877,
      "sistem": 1878,
      "##enin": 1879,
      "frans": 1880,
      "neden": 1881,
      "##lugu": 1882,
      "##lat": 1883,
      "##lıg": 1884,
      "onem": 1885,
      "car": 1886,
      "pol": 1887,
      "##inal": 1888,
      "nda": 1889,
      "kend": 1890,
      "##ucu": 1891,
      "acık": 1892,
      "##sa": 1893,
      "nun": 1894,
      "##hur": 1895,
      "##una": 1896,
      "##ograf": 1897,
      "man": 1898,
      "bilin": 1899,
      "has": 1900,
      "bey": 1901,
      "etti": 1902,
      "ben": 1903,
      "egit": 1904,
      "osman": 1905,
      "##ard": 1906,
      "universitesi": 1907,
      "dir": 1908,
      "##ıstır": 1909,
      "##unde": 1910,
      "basladı": 1911,
      "gercek": 1912,
      "dıs": 1913,
      "##adan": 1914,
      "##eyi": 1915,
      "kit": 1916,
      "##tor": 1917,
      "193": 1918,
      "##abilir": 1919,
      "avrupa": 1920,
      "sen": 1921,
      "17": 1922,
      "hav": 1923,
      "##tik": 1924,
      "##gunu": 1925,
      "##ileri": 1926,
      "16": 1927,
      "kız": 1928,
      "##isk": 1929,
      "cev": 1930,
      "sarkı": 1931,
      "gelen": 1932,
      "yarıs": 1933,
      "sa": 1934,
      "##ne": 1935,
      "##acak": 1936,
      "eski": 1937,
      "daki": 1938,
      "##lul": 1939,
      "olus": 1940,
      "=\"": 1941,
      "ye": 1942,
      "icer": 1943,
      "##indeki": 1944,
      "adlı": 1945,
      "karsı": 1946,
      "##ud": 1947,
      "duzen": 1948,
      "bolum": 1949,
      "##se": 1950,
      "##van": 1951,
      "202": 1952,
      "##landı": 1953,
      "nis": 1954,
      "can": 1955,
      "insan": 1956,
      "##imler": 1957,
      "##likle": 1958,
      "oyuncu": 1959,
      "sub": 1960,
      "##mesi": 1961,
      "iyi": 1962,
      "fak": 1963,
      "savas": 1964,
      "bab": 1965,
      "tel": 1966,
      "hem": 1967,
      "ark": 1968,
      "##ru": 1969,
      "##ge": 1970,
      "kral": 1971,
      "ter": 1972,
      "tum": 1973,
      "le": 1974,
      "sin": 1975,
      "cumhur": 1976,
      "han": 1977,
      "##olu": 1978,
      "sekil": 1979,
      "kariy": 1980,
      "##acı": 1981,
      "impar": 1982,
      "imparator": 1983,
      "##yıl": 1984,
      "##ımı": 1985,
      "##larından": 1986,
      "la": 1987,
      "##na": 1988,
      "ikinci": 1989,
      "bit": 1990,
      "get": 1991,
      "ust": 1992,
      "tamam": 1993,
      "##asım": 1994,
      "##landır": 1995,
      "fark": 1996,
      "mak": 1997,
      "##gul": 1998,
      "##iyor": 1999,
      "ist": 2000,
      "sonr": 2001,
      "mal": 2002,
      "##ran": 2003,
      "yuzyıl": 2004,
      "onemli": 2005,
      "guc": 2006,
      "##iyas": 2007,
      "bazı": 2008,
      "mart": 2009,
      "devam": 2010,
      "sun": 2011,
      "osmanlı": 2012,
      "14": 2013,
      "kuz": 2014,
      "##elik": 2015,
      "and": 2016,
      "yasam": 2017,
      "yet": 2018,
      "##ug": 2019,
      "kis": 2020,
      "11": 2021,
      "uret": 2022,
      "grub": 2023,
      "##esini": 2024,
      "##dugu": 2025,
      "ber": 2026,
      "gur": 2027,
      "ard": 2028,
      "kadın": 2029,
      "ingiliz": 2030,
      "13": 2031,
      "##ılmıstır": 2032,
      "##lerinin": 2033,
      "once": 2034,
      "ces": 2035,
      "muzik": 2036,
      "##lardan": 2037,
      "##lanan": 2038,
      "harek": 2039,
      "##ide": 2040,
      "##dar": 2041,
      "bulunan": 2042,
      "ta": 2043,
      "na": 2044,
      "sor": 2045,
      "##esinin": 2046,
      "kı": 2047,
      "kez": 2048,
      "may": 2049,
      "sat": 2050,
      "album": 2051,
      "##ton": 2052,
      "olustur": 2053,
      "abd": 2054,
      "bar": 2055,
      "gal": 2056,
      "cin": 2057,
      "##ılık": 2058,
      "birc": 2059,
      "guney": 2060,
      "getir": 2061,
      "gaz": 2062,
      "tekn": 2063,
      "amerik": 2064,
      "mod": 2065,
      "##for": 2066,
      "birles": 2067,
      "kol": 2068,
      "##edi": 2069,
      "dol": 2070,
      "192": 2071,
      "halk": 2072,
      "calısma": 2073,
      "hukum": 2074,
      "##dım": 2075,
      "bes": 2076,
      "##lama": 2077,
      "cıkar": 2078,
      "bircok": 2079,
      "bun": 2080,
      "faz": 2081,
      "##duk": 2082,
      "##tar": 2083,
      "2009": 2084,
      "sar": 2085,
      "mez": 2086,
      "rol": 2087,
      "##lerinde": 2088,
      "##ich": 2089,
      "ardından": 2090,
      "sir": 2091,
      "kuc": 2092,
      "##oh": 2093,
      "kes": 2094,
      "kuzey": 2095,
      "em": 2096,
      "orta": 2097,
      "mus": 2098,
      "sekilde": 2099,
      "eser": 2100,
      "yardım": 2101,
      "gol": 2102,
      "per": 2103,
      "onc": 2104,
      "uzere": 2105,
      "##yal": 2106,
      "tes": 2107,
      "olmustur": 2108,
      "biri": 2109,
      "mes": 2110,
      "tah": 2111,
      "##ilmis": 2112,
      "uzerine": 2113,
      "dil": 2114,
      "ii": 2115,
      "##ilik": 2116,
      "grup": 2117,
      "##eks": 2118,
      "hat": 2119,
      "##mus": 2120,
      "egitim": 2121,
      "mah": 2122,
      "yor": 2123,
      "##lay": 2124,
      "##ie": 2125,
      "dok": 2126,
      "final": 2127,
      "sh": 2128,
      "##osu": 2129,
      "##muz": 2130,
      "##asına": 2131,
      "orn": 2132,
      "art": 2133,
      "##vet": 2134,
      "##bar": 2135,
      "##ens": 2136,
      "yapılan": 2137,
      "tab": 2138,
      "##ga": 2139,
      "##lendir": 2140,
      "nisan": 2141,
      "list": 2142,
      "2011": 2143,
      "kucuk": 2144,
      "bin": 2145,
      "tut": 2146,
      "191": 2147,
      "pat": 2148,
      "##pan": 2149,
      "basar": 2150,
      "##ici": 2151,
      "deniz": 2152,
      "baskan": 2153,
      "kil": 2154,
      "##rak": 2155,
      "2008": 2156,
      "sev": 2157,
      "olmak": 2158,
      "sey": 2159,
      "uzun": 2160,
      "##th": 2161,
      "2010": 2162,
      "dem": 2163,
      "##lerde": 2164,
      "genc": 2165,
      "og": 2166,
      "odul": 2167,
      "icinde": 2168,
      "##sız": 2169,
      "##asa": 2170,
      "lis": 2171,
      "##son": 2172,
      "ocak": 2173,
      "##layan": 2174,
      "##gel": 2175,
      "sehir": 2176,
      "goz": 2177,
      "kut": 2178,
      "savası": 2179,
      "cesit": 2180,
      "kabul": 2181,
      "##ult": 2182,
      "vardır": 2183,
      "dr": 2184,
      "##iran": 2185,
      "ail": 2186,
      "##lin": 2187,
      "ital": 2188,
      "##end": 2189,
      "##por": 2190,
      "##ılmıs": 2191,
      "ekim": 2192,
      "temmuz": 2193,
      "##per": 2194,
      "##meye": 2195,
      "##isinde": 2196,
      "##atik": 2197,
      "2012": 2198,
      "##bir": 2199,
      "##ack": 2200,
      "##egi": 2201,
      "sos": 2202,
      "eylul": 2203,
      "re": 2204,
      "sın": 2205,
      "kır": 2206,
      "ot": 2207,
      "##of": 2208,
      "##arası": 2209,
      "org": 2210,
      "degis": 2211,
      "##fer": 2212,
      "##inc": 2213,
      "##une": 2214,
      "th": 2215,
      "##kan": 2216,
      "sonuc": 2217,
      "tiyat": 2218,
      "##ert": 2219,
      "gon": 2220,
      "alın": 2221,
      "siyas": 2222,
      "part": 2223,
      ").": 2224,
      "yazar": 2225,
      "col": 2226,
      "##dıgı": 2227,
      "2007": 2228,
      "subat": 2229,
      "cog": 2230,
      "ank": 2231,
      "baglı": 2232,
      "cumhuriyet": 2233,
      "git": 2234,
      "sırasında": 2235,
      "##unca": 2236,
      "##ht": 2237,
      "##ation": 2238,
      "tarihi": 2239,
      "kayn": 2240,
      "co": 2241,
      "##ant": 2242,
      "##lerine": 2243,
      "2013": 2244,
      "uygul": 2245,
      "af": 2246,
      "yun": 2247,
      "prof": 2248,
      "hakk": 2249,
      "ede": 2250,
      "##erb": 2251,
      "tanım": 2252,
      "hayat": 2253,
      "sı": 2254,
      "##ecek": 2255,
      "2000": 2256,
      "haziran": 2257,
      "coc": 2258,
      "sul": 2259,
      "arastır": 2260,
      "yılları": 2261,
      "kısa": 2262,
      "nuf": 2263,
      "##lerinden": 2264,
      "##umlu": 2265,
      "kultur": 2266,
      "##sal": 2267,
      "##ian": 2268,
      "##ign": 2269,
      "##oloji": 2270,
      "mayıs": 2271,
      "kas": 2272,
      "kasım": 2273,
      "##aret": 2274,
      "yaklas": 2275,
      "ogren": 2276,
      "yen": 2277,
      "iti": 2278,
      "##alan": 2279,
      "dag": 2280,
      "isim": 2281,
      "eden": 2282,
      "yur": 2283,
      "agust": 2284,
      "aralık": 2285,
      "amerika": 2286,
      "cocuk": 2287,
      "agustos": 2288,
      "##lere": 2289,
      "sil": 2290,
      "sim": 2291,
      "hareket": 2292,
      "mo": 2293,
      "##tif": 2294,
      "deki": 2295,
      "dav": 2296,
      "karak": 2297,
      "futbolcu": 2298,
      "##hil": 2299,
      "2005": 2300,
      "##lum": 2301,
      "2014": 2302,
      "uzerinde": 2303,
      "spor": 2304,
      "geri": 2305,
      "##elen": 2306,
      "farklı": 2307,
      "cesitli": 2308,
      "##ari": 2309,
      "##ach": 2310,
      "cen": 2311,
      "erk": 2312,
      "sirk": 2313,
      "##ebilir": 2314,
      "baglan": 2315,
      "boyunca": 2316,
      "kons": 2317,
      "gecir": 2318,
      "yakın": 2319,
      "kim": 2320,
      "anlam": 2321,
      "kup": 2322,
      "kuv": 2323,
      "durum": 2324,
      "yerles": 2325,
      "konus": 2326,
      "##igini": 2327,
      "2006": 2328,
      "2016": 2329,
      "2004": 2330,
      "dogru": 2331,
      "bilim": 2332,
      "fazla": 2333,
      "##..": 2334,
      "roman": 2335,
      "hiz": 2336,
      "odulu": 2337,
      "ogret": 2338,
      "##ali": 2339,
      "oldugunu": 2340,
      "##ciler": 2341,
      "##ern": 2342,
      "##land": 2343,
      "mon": 2344,
      "##asının": 2345,
      "yaklasık": 2346,
      "##tu": 2347,
      "##uncu": 2348,
      "##aber": 2349,
      "##ou": 2350,
      "##gını": 2351,
      "dest": 2352,
      "##si": 2353,
      "##cısı": 2354,
      "##umuz": 2355,
      "kard": 2356,
      "zamanda": 2357,
      "new": 2358,
      "si": 2359,
      "ciz": 2360,
      "##can": 2361,
      "uluslar": 2362,
      "kok": 2363,
      "2015": 2364,
      "nor": 2365,
      "sup": 2366,
      "##gın": 2367,
      "fransız": 2368,
      "mat": 2369,
      "deger": 2370,
      "ankara": 2371,
      "ko": 2372,
      "ma": 2373,
      "||": 2374,
      "sure": 2375,
      "milli": 2376,
      "ana": 2377,
      "progr": 2378,
      "##rar": 2379,
      "##lenen": 2380,
      "birlesik": 2381,
      "bunun": 2382,
      "##our": 2383,
      "##sil": 2384,
      "##ina": 2385,
      "zor": 2386,
      "##ale": 2387,
      "sov": 2388,
      "kendi": 2389,
      "cam": 2390,
      "ilgil": 2391,
      "gunumuz": 2392,
      "tasar": 2393,
      "erkek": 2394,
      "kisi": 2395,
      "plan": 2396,
      "sade": 2397,
      "katıl": 2398,
      "sol": 2399,
      "genis": 2400,
      "kam": 2401,
      "##ber": 2402,
      "##uler": 2403,
      "##uldu": 2404,
      "arac": 2405,
      "yapı": 2406,
      "saldır": 2407,
      "yunan": 2408,
      "cag": 2409,
      "com": 2410,
      "##io": 2411,
      "uluslararası": 2412,
      "hız": 2413,
      "##lak": 2414,
      "yuksel": 2415,
      "sosyal": 2416,
      "duy": 2417,
      "ses": 2418,
      "2003": 2419,
      "gelistir": 2420,
      "##izyon": 2421,
      "##lo": 2422,
      "##anın": 2423,
      "sadece": 2424,
      "fil": 2425,
      "##iydi": 2426,
      "##adıgı": 2427,
      "toplam": 2428,
      "000": 2429,
      "##iyan": 2430,
      "parc": 2431,
      "teknik": 2432,
      "profes": 2433,
      "30": 2434,
      "##sam": 2435,
      "##leme": 2436,
      "gerek": 2437,
      "##rik": 2438,
      "ilisk": 2439,
      "destek": 2440,
      "##yo": 2441,
      "edeb": 2442,
      "kos": 2443,
      "kent": 2444,
      "ulusal": 2445,
      "##gin": 2446,
      "##asını": 2447,
      "##ord": 2448,
      "##ice": 2449,
      "ilc": 2450,
      "dal": 2451,
      "haf": 2452,
      "sayı": 2453,
      "##ue": 2454,
      "##med": 2455,
      "##ektor": 2456,
      "yayım": 2457,
      "baskanı": 2458,
      "nedeniyle": 2459,
      "dogu": 2460,
      "##siyon": 2461,
      "kuvvet": 2462,
      "program": 2463,
      "batı": 2464,
      "##co": 2465,
      "##ank": 2466,
      "olum": 2467,
      "edilm": 2468,
      "25": 2469,
      "sem": 2470,
      "##br": 2471,
      "##eme": 2472,
      "##ova": 2473,
      "baslam": 2474,
      "edildi": 2475,
      "ulas": 2476,
      "1998": 2477,
      "##lardır": 2478,
      "##onya": 2479,
      "mag": 2480,
      "##ind": 2481,
      "align": 2482,
      "fransa": 2483,
      "mev": 2484,
      "bulunmaktadır": 2485,
      "din": 2486,
      "##ung": 2487,
      "eder": 2488,
      "cevr": 2489,
      "21": 2490,
      "ah": 2491,
      "ligi": 2492,
      "seb": 2493,
      "yok": 2494,
      "##tigi": 2495,
      "##yet": 2496,
      "##esinden": 2497,
      "onun": 2498,
      "kaynak": 2499,
      "fa": 2500,
      "##tiv": 2501,
      "yeniden": 2502,
      "dort": 2503,
      "birligi": 2504,
      "okul": 2505,
      "sınır": 2506,
      "sel": 2507,
      "##ırak": 2508,
      "##dız": 2509,
      "hizmet": 2510,
      "##dik": 2511,
      "##eder": 2512,
      "##ustu": 2513,
      "trans": 2514,
      "benz": 2515,
      "almıstır": 2516,
      "##larla": 2517,
      "yıldız": 2518,
      "##ly": 2519,
      "##lerden": 2520,
      "islem": 2521,
      "##tıgı": 2522,
      "insa": 2523,
      "komut": 2524,
      "del": 2525,
      "guv": 2526,
      "##det": 2527,
      "##ij": 2528,
      "2001": 2529,
      "akade": 2530,
      "genellikle": 2531,
      "merkezi": 2532,
      "telev": 2533,
      "dik": 2534,
      "tor": 2535,
      "karar": 2536,
      "##ess": 2537,
      "##eyen": 2538,
      "dusun": 2539,
      "resmi": 2540,
      "##yordu": 2541,
      "kitap": 2542,
      "##sk": 2543,
      "nufus": 2544,
      "karakter": 2545,
      "hol": 2546,
      "bilg": 2547,
      "temsil": 2548,
      "bakan": 2549,
      "bırak": 2550,
      "bagım": 2551,
      "oglu": 2552,
      "ele": 2553,
      "rag": 2554,
      "##yı": 2555,
      "gonder": 2556,
      "##ry": 2557,
      "##ast": 2558,
      "##ost": 2559,
      "##eci": 2560,
      "gelis": 2561,
      "anlas": 2562,
      "##tılar": 2563,
      "edilen": 2564,
      "beled": 2565,
      "##ıktan": 2566,
      "##uan": 2567,
      "##isini": 2568,
      "almanya": 2569,
      "kupası": 2570,
      "kem": 2571,
      "##bas": 2572,
      "##ick": 2573,
      "agır": 2574,
      "roma": 2575,
      "mer": 2576,
      "##esiyle": 2577,
      "elekt": 2578,
      "yaptıgı": 2579,
      "kariyer": 2580,
      "##alya": 2581,
      "2002": 2582,
      "##masına": 2583,
      "##ıp": 2584,
      "##onom": 2585,
      "##all": 2586,
      "if": 2587,
      "kullanıl": 2588,
      "duny": 2589,
      "altında": 2590,
      "babası": 2591,
      "##und": 2592,
      "##ehir": 2593,
      "kariyeri": 2594,
      "mas": 2595,
      "mor": 2596,
      "sık": 2597,
      "ıs": 2598,
      "##ema": 2599,
      "##masını": 2600,
      "arastırma": 2601,
      "sirket": 2602,
      "bat": 2603,
      "##isti": 2604,
      "ord": 2605,
      "gorun": 2606,
      "1999": 2607,
      "degil": 2608,
      "altın": 2609,
      "yasında": 2610,
      "adam": 2611,
      "##ydı": 2612,
      "##ime": 2613,
      "ann": 2614,
      "amerikalı": 2615,
      "sak": 2616,
      "##bi": 2617,
      "1997": 2618,
      "ilgili": 2619,
      "tası": 2620,
      "2017": 2621,
      "ortaya": 2622,
      "lar": 2623,
      "mek": 2624,
      "ren": 2625,
      "olup": 2626,
      "##ock": 2627,
      "milyon": 2628,
      "partisi": 2629,
      "bo": 2630,
      "he": 2631,
      "mik": 2632,
      "##to": 2633,
      "##bet": 2634,
      "##rist": 2635,
      "imz": 2636,
      "televizyon": 2637,
      "km": 2638,
      "kop": 2639,
      "katıldı": 2640,
      "guven": 2641,
      "##ron": 2642,
      "olduk": 2643,
      "gorul": 2644,
      "hazır": 2645,
      "##alar": 2646,
      "##kac": 2647,
      "gazet": 2648,
      "super": 2649,
      "des": 2650,
      "##unden": 2651,
      "##isinin": 2652,
      "##ısında": 2653,
      "kullanılan": 2654,
      "fakult": 2655,
      "itibar": 2656,
      "##alt": 2657,
      "##ise": 2658,
      "dahil": 2659,
      "yapım": 2660,
      "tekrar": 2661,
      "bos": 2662,
      "##ram": 2663,
      "##egin": 2664,
      "ozellikle": 2665,
      "adıyla": 2666,
      "asker": 2667,
      "askeri": 2668,
      "con": 2669,
      "##gar": 2670,
      "##ilerin": 2671,
      "devr": 2672,
      "ozellik": 2673,
      "ten": 2674,
      "##ift": 2675,
      "##ku": 2676,
      "olur": 2677,
      "olay": 2678,
      "##abil": 2679,
      "##ider": 2680,
      "tiyatro": 2681,
      "bah": 2682,
      "kav": 2683,
      "filmi": 2684,
      "temel": 2685,
      "nok": 2686,
      "sam": 2687,
      "##cel": 2688,
      "uyesi": 2689,
      "cumhuriyeti": 2690,
      "##urg": 2691,
      "rusya": 2692,
      "ragmen": 2693,
      "mim": 2694,
      "##ıcı": 2695,
      "elde": 2696,
      "so": 2697,
      "yah": 2698,
      "##izm": 2699,
      "inter": 2700,
      "kurt": 2701,
      "proj": 2702,
      "ur": 2703,
      "##ele": 2704,
      "ge": 2705,
      "mut": 2706,
      "##ell": 2707,
      "##iya": 2708,
      "polit": 2709,
      "gem": 2710,
      "pop": 2711,
      "birkac": 2712,
      "##imp": 2713,
      "gerceklestir": 2714,
      "itibaren": 2715,
      "biy": 2716,
      "go": 2717,
      "mot": 2718,
      "yerine": 2719,
      "hakkında": 2720,
      "silah": 2721,
      "bagımsız": 2722,
      "bay": 2723,
      "wil": 2724,
      "but": 2725,
      "sovyet": 2726,
      "joh": 2727,
      "kel": 2728,
      "num": 2729,
      "##ros": 2730,
      "##ph": 2731,
      "##ılması": 2732,
      "hayatı": 2733,
      "tic": 2734,
      "yı": 2735,
      "2018": 2736,
      "baska": 2737,
      "1960": 2738,
      "muc": 2739,
      "sını": 2740,
      "bilinen": 2741,
      "model": 2742,
      "cor": 2743,
      "ler": 2744,
      "rob": 2745,
      "us": 2746,
      "|-": 2747,
      "##isyon": 2748,
      "1990": 2749,
      "oyunc": 2750,
      "belirt": 2751,
      "##larıyla": 2752,
      "##lendi": 2753,
      "##elerin": 2754,
      "sezonunda": 2755,
      "kitab": 2756,
      "arkad": 2757,
      "grubu": 2758,
      "##ba": 2759,
      "##lanmıstır": 2760,
      "yonetim": 2761,
      "28": 2762,
      "bor": 2763,
      "se": 2764,
      "def": 2765,
      "onu": 2766,
      "##bak": 2767,
      "1994": 2768,
      "kontr": 2769,
      "karsıl": 2770,
      "sınıf": 2771,
      "kah": 2772,
      "min": 2773,
      "mem": 2774,
      "##kı": 2775,
      "##ıkları": 2776,
      "takımı": 2777,
      "kazandı": 2778,
      "hava": 2779,
      "imparatorlugu": 2780,
      "vol": 2781,
      "##mayı": 2782,
      "##san": 2783,
      "##siz": 2784,
      "##lek": 2785,
      "##gında": 2786,
      "sonunda": 2787,
      "\",": 2788,
      "cez": 2789,
      "yi": 2790,
      "190": 2791,
      "sırada": 2792,
      "##asyonu": 2793,
      "22": 2794,
      "dar": 2795,
      "fiz": 2796,
      "oper": 2797,
      "##rat": 2798,
      "##ond": 2799,
      "##esel": 2800,
      "olması": 2801,
      "adlandır": 2802,
      "fakat": 2803,
      "john": 2804,
      "med": 2805,
      "port": 2806,
      "1996": 2807,
      "verdi": 2808,
      "24": 2809,
      "hic": 2810,
      "sab": 2811,
      "burada": 2812,
      "23": 2813,
      "boz": 2814,
      "cat": 2815,
      "sef": 2816,
      "##anan": 2817,
      "##ısma": 2818,
      "cift": 2819,
      "to": 2820,
      "##maz": 2821,
      "##isine": 2822,
      "isv": 2823,
      "##ize": 2824,
      "ir": 2825,
      "pet": 2826,
      "##art": 2827,
      "konu": 2828,
      "derec": 2829,
      "direktor": 2830,
      "do": 2831,
      "id": 2832,
      "naz": 2833,
      "rad": 2834,
      "##tem": 2835,
      "##ji": 2836,
      "##ilmesi": 2837,
      "toprak": 2838,
      "olmayan": 2839,
      "atan": 2840,
      "mec": 2841,
      "2019": 2842,
      "end": 2843,
      "1995": 2844,
      "gelir": 2845,
      "aday": 2846,
      "amerikan": 2847,
      "##alet": 2848,
      "##iginde": 2849,
      "##lanmıs": 2850,
      "arap": 2851,
      "mey": 2852,
      "tv": 2853,
      "##int": 2854,
      "##iss": 2855,
      "anad": 2856,
      "##ansı": 2857,
      "yonetmen": 2858,
      "mezun": 2859,
      "100": 2860,
      "ap": 2861,
      "ef": 2862,
      "tip": 2863,
      "##mam": 2864,
      "edil": 2865,
      "##udi": 2866,
      "##mal": 2867,
      "##ver": 2868,
      "millet": 2869,
      "kısm": 2870,
      "fot": 2871,
      "##rı": 2872,
      "##ier": 2873,
      "##ire": 2874,
      "##uluk": 2875,
      "##ınız": 2876,
      "kulub": 2877,
      "ekonom": 2878,
      "doneminde": 2879,
      "nes": 2880,
      "nden": 2881,
      "pa": 2882,
      "##uh": 2883,
      "##undan": 2884,
      "degistir": 2885,
      "saat": 2886,
      "26": 2887,
      "val": 2888,
      "##ye": 2889,
      "##ilmektedir": 2890,
      "dogdu": 2891,
      "yarı": 2892,
      "##ılıgı": 2893,
      "27": 2894,
      "kus": 2895,
      "##aj": 2896,
      "##ith": 2897,
      "ingilizce": 2898,
      "dayan": 2899,
      "ham": 2900,
      "it": 2901,
      "pasa": 2902,
      "yanı": 2903,
      "##sik": 2904,
      "##yalı": 2905,
      "olimp": 2906,
      "ait": 2907,
      "om": 2908,
      "##oglu": 2909,
      "devletleri": 2910,
      "sahiptir": 2911,
      "##iyordu": 2912,
      "transfer": 2913,
      "fakultesi": 2914,
      "taki": 2915,
      "yag": 2916,
      "##ity": 2917,
      "##tere": 2918,
      "sıra": 2919,
      "olusan": 2920,
      "##lamak": 2921,
      "2020": 2922,
      "##pr": 2923,
      "##dem": 2924,
      "##lerle": 2925,
      "geldi": 2926,
      "beyaz": 2927,
      "be": 2928,
      "cap": 2929,
      "je": 2930,
      "pan": 2931,
      "##ka": 2932,
      "##pe": 2933,
      "##isim": 2934,
      "oldur": 2935,
      "dogumlu": 2936,
      "savun": 2937,
      "sehr": 2938,
      "arasındaki": 2939,
      "anadolu": 2940,
      "eki": 2941,
      "##ince": 2942,
      "ener": 2943,
      "1993": 2944,
      "tanın": 2945,
      "evr": 2946,
      "sultan": 2947,
      "motor": 2948,
      "bal": 2949,
      "giy": 2950,
      "birinci": 2951,
      "uzak": 2952,
      "sanatcı": 2953,
      "ama": 2954,
      "kac": 2955,
      "cıkan": 2956,
      "cıktı": 2957,
      "ornek": 2958,
      "fen": 2959,
      "men": 2960,
      "##lis": 2961,
      "##ars": 2962,
      "derg": 2963,
      "baglantılar": 2964,
      "jap": 2965,
      "##tay": 2966,
      "##ang": 2967,
      "##eral": 2968,
      "ispan": 2969,
      "##mans": 2970,
      "1992": 2971,
      "bulunur": 2972,
      "##fi": 2973,
      "##qu": 2974,
      "##ary": 2975,
      "##aka": 2976,
      "##landa": 2977,
      "##ica": 2978,
      "turn": 2979,
      "surdur": 2980,
      "yazı": 2981,
      "189": 2982,
      "form": 2983,
      "kum": 2984,
      "##gur": 2985,
      "##ana": 2986,
      "##one": 2987,
      "##ustr": 2988,
      "parti": 2989,
      "mudur": 2990,
      "sonraki": 2991,
      "##ni": 2992,
      "##meni": 2993,
      "##cut": 2994,
      "##atur": 2995,
      "##aycan": 2996,
      "kullanılır": 2997,
      "ucuncu": 2998,
      "kurulus": 2999,
      "york": 3000,
      "vide": 3001,
      "yal": 3002,
      "##enler": 3003,
      "yapan": 3004,
      "bolumu": 3005,
      "adını": 3006,
      "yasayan": 3007,
      "fran": 3008,
      "hik": 3009,
      "basarı": 3010,
      "etm": 3011,
      "azerb": 3012,
      "hukuk": 3013,
      "doktor": 3014,
      "mucad": 3015,
      "fes": 3016,
      "##aması": 3017,
      "##ite": 3018,
      "bakınız": 3019,
      "dolayı": 3020,
      "siyasi": 3021,
      "olimpiyat": 3022,
      "mur": 3023,
      "##ai": 3024,
      "##dana": 3025,
      "yapmıstır": 3026,
      "##uvar": 3027,
      "ortak": 3028,
      "beraber": 3029,
      "fel": 3030,
      "kaf": 3031,
      "kayı": 3032,
      "me": 3033,
      "##ons": 3034,
      "ali": 3035,
      "enst": 3036,
      "azerbaycan": 3037,
      "...": 3038,
      "pas": 3039,
      "sk": 3040,
      "yat": 3041,
      "##era": 3042,
      "##imleri": 3043,
      "##ektir": 3044,
      "##elerde": 3045,
      "sekl": 3046,
      "siir": 3047,
      "bek": 3048,
      "##lad": 3049,
      "##yas": 3050,
      "##eth": 3051,
      "alır": 3052,
      "verilen": 3053,
      "ingiltere": 3054,
      "biz": 3055,
      "rah": 3056,
      "ugr": 3057,
      "##erson": 3058,
      "boyle": 3059,
      "must": 3060,
      "tal": 3061,
      "altı": 3062,
      "dizi": 3063,
      "italya": 3064,
      "mark": 3065,
      "inan": 3066,
      "sonucu": 3067,
      "amacı": 3068,
      "kaldı": 3069,
      "##olojik": 3070,
      "##ligini": 3071,
      "hukumet": 3072,
      "organ": 3073,
      "bic": 3074,
      "elestir": 3075,
      "donemde": 3076,
      "perfor": 3077,
      "mimar": 3078,
      "##istik": 3079,
      "gercekles": 3080,
      "ref": 3081,
      "##lev": 3082,
      "##itesi": 3083,
      "anlat": 3084,
      "kara": 3085,
      "ordu": 3086,
      "kulup": 3087,
      "bro": 3088,
      "coz": 3089,
      "hey": 3090,
      "##suz": 3091,
      "etmek": 3092,
      "amac": 3093,
      "toplum": 3094,
      "kızı": 3095,
      "ornegin": 3096,
      "karsılas": 3097,
      "##sen": 3098,
      "kalan": 3099,
      "italyan": 3100,
      "feder": 3101,
      "1991": 3102,
      "bl": 3103,
      "cem": 3104,
      "seri": 3105,
      "yine": 3106,
      "##tin": 3107,
      "##evi": 3108,
      "paris": 3109,
      "benzer": 3110,
      "performans": 3111,
      "##rol": 3112,
      "##sun": 3113,
      "asagı": 3114,
      "##yonel": 3115,
      "muhend": 3116,
      "guclu": 3117,
      "kontrol": 3118,
      "po": 3119,
      "##her": 3120,
      "##lanır": 3121,
      "fizik": 3122,
      "pek": 3123,
      "sc": 3124,
      "tat": 3125,
      "##ius": 3126,
      "etmistir": 3127,
      "yerel": 3128,
      "kilis": 3129,
      "futbolcuları": 3130,
      "di": 3131,
      "##min": 3132,
      "##lor": 3133,
      "##iligi": 3134,
      "islam": 3135,
      "yıllarında": 3136,
      "sty": 3137,
      "sinema": 3138,
      "yuzyılda": 3139,
      "center": 3140,
      "profesyonel": 3141,
      "()": 3142,
      "29": 3143,
      "gez": 3144,
      "##aları": 3145,
      "##ris": 3146,
      "##ong": 3147,
      "##olog": 3148,
      "edilir": 3149,
      "##elerinde": 3150,
      "basarılı": 3151,
      "faal": 3152,
      "fotograf": 3153,
      "##cisi": 3154,
      "sistemi": 3155,
      "ogretmen": 3156,
      "klas": 3157,
      "##enc": 3158,
      "birbir": 3159,
      "##ısını": 3160,
      "##aca": 3161,
      "1980": 3162,
      "degisik": 3163,
      "isimli": 3164,
      ".)": 3165,
      "vat": 3166,
      "##rika": 3167,
      "tasın": 3168,
      "##leyen": 3169,
      "dısında": 3170,
      "listesi": 3171,
      "##ii": 3172,
      "##be": 3173,
      "calıstı": 3174,
      "saldırı": 3175,
      "cih": 3176,
      "mit": 3177,
      "suc": 3178,
      "sch": 3179,
      "vil": 3180,
      "##ayet": 3181,
      "##aban": 3182,
      "1989": 3183,
      "187": 3184,
      "prens": 3185,
      "kurulan": 3186,
      "muhar": 3187,
      "ifade": 3188,
      "##etbol": 3189,
      "yılından": 3190,
      "1970": 3191,
      "bitir": 3192,
      "mevcut": 3193,
      "fik": 3194,
      "idar": 3195,
      "meh": 3196,
      "siv": 3197,
      "##cılık": 3198,
      "1988": 3199,
      "yaygın": 3200,
      "soyle": 3201,
      "etkin": 3202,
      "2021": 3203,
      "gunumuzde": 3204,
      "butun": 3205,
      "hen": 3206,
      "zen": 3207,
      "##mir": 3208,
      "##mem": 3209,
      "##tas": 3210,
      "##asıyla": 3211,
      "ilet": 3212,
      "unlu": 3213,
      "kurulu": 3214,
      "aldıgı": 3215,
      "demok": 3216,
      "mekan": 3217,
      "''": 3218,
      "tanı": 3219,
      "##gor": 3220,
      "teor": 3221,
      "demir": 3222,
      "siyaset": 3223,
      "video": 3224,
      "festiv": 3225,
      "fır": 3226,
      "ki": 3227,
      "lib": 3228,
      "lef": 3229,
      "##kat": 3230,
      "##onu": 3231,
      "##isleri": 3232,
      "##ore": 3233,
      "gecen": 3234,
      "##lıgını": 3235,
      "##ografi": 3236,
      "gurc": 3237,
      "akadem": 3238,
      "op": 3239,
      "sok": 3240,
      "##amak": 3241,
      "##lerdir": 3242,
      "islet": 3243,
      "bugun": 3244,
      "basbak": 3245,
      "yılı": 3246,
      "sayısı": 3247,
      "faaliyet": 3248,
      "beri": 3249,
      "best": 3250,
      "ih": 3251,
      "rek": 3252,
      "##bo": 3253,
      "isk": 3254,
      "bulundugu": 3255,
      "1985": 3256,
      "##yanın": 3257,
      "cogu": 3258,
      "edebiyat": 3259,
      "fer": 3260,
      "neh": 3261,
      "##lav": 3262,
      "cocu": 3263,
      "red": 3264,
      "sut": 3265,
      "##uel": 3266,
      "##vek": 3267,
      "##ins": 3268,
      "kardesi": 3269,
      "hit": 3270,
      "huc": 3271,
      "lat": 3272,
      "sid": 3273,
      "##orn": 3274,
      "angel": 3275,
      "##lenir": 3276,
      "filmler": 3277,
      "sampiyonası": 3278,
      "hemen": 3279,
      "enstit": 3280,
      "muhareb": 3281,
      "50": 3282,
      "guz": 3283,
      "jo": 3284,
      "kir": 3285,
      "rock": 3286,
      "yem": 3287,
      "##rosu": 3288,
      "##los": 3289,
      "##ıt": 3290,
      "isg": 3291,
      "erken": 3292,
      "1982": 3293,
      "yasamı": 3294,
      "parcası": 3295,
      "iddi": 3296,
      "##erv": 3297,
      "##ısına": 3298,
      "##uma": 3299,
      "##egor": 3300,
      "bakanı": 3301,
      "ulke": 3302,
      "intern": 3303,
      "31": 3304,
      "gi": 3305,
      "gar": 3306,
      "idi": 3307,
      "ov": 3308,
      "vir": 3309,
      "##dog": 3310,
      "##ino": 3311,
      "##itan": 3312,
      "baslan": 3313,
      "edilmistir": 3314,
      "basketbol": 3315,
      "bolgesi": 3316,
      "stan": 3317,
      "##su": 3318,
      "##ısır": 3319,
      "asıl": 3320,
      "bulundu": 3321,
      "albumu": 3322,
      "sozles": 3323,
      "yardımcı": 3324,
      "dis": 3325,
      "vak": 3326,
      "##acag": 3327,
      "##gıc": 3328,
      "tep": 3329,
      "macar": 3330,
      "dizisi": 3331,
      "air": 3332,
      "cer": 3333,
      "ha": 3334,
      "jam": 3335,
      "mir": 3336,
      "##ix": 3337,
      "##yen": 3338,
      "##cuk": 3339,
      "##burg": 3340,
      "##okal": 3341,
      "##manın": 3342,
      "icerisinde": 3343,
      "cumhurbas": 3344,
      "baslamıstır": 3345,
      "sm": 3346,
      "ır": 3347,
      "##ke": 3348,
      "##asından": 3349,
      "alanı": 3350,
      "##edik": 3351,
      "dern": 3352,
      "orgut": 3353,
      "bakanlıgı": 3354,
      "left": 3355,
      "ders": 3356,
      "eur": 3357,
      "fir": 3358,
      "pay": 3359,
      "tim": 3360,
      "ven": 3361,
      "wor": 3362,
      "##eceg": 3363,
      "ona": 3364,
      "##lugun": 3365,
      "2022": 3366,
      "hikay": 3367,
      "lider": 3368,
      "mic": 3369,
      "##kr": 3370,
      "##lulu": 3371,
      "##din": 3372,
      "##ight": 3373,
      "##ogun": 3374,
      "turu": 3375,
      "##lamıstır": 3376,
      "donus": 3377,
      "uyar": 3378,
      "goc": 3379,
      "hrist": 3380,
      "##sh": 3381,
      "##lim": 3382,
      "##gen": 3383,
      "##ze": 3384,
      "##unc": 3385,
      "basken": 3386,
      "yapımı": 3387,
      "1986": 3388,
      "1978": 3389,
      "madalya": 3390,
      "cevir": 3391,
      "milletvek": 3392,
      "turnuv": 3393,
      "##lisi": 3394,
      "dagı": 3395,
      "almaktadır": 3396,
      "ant": 3397,
      "dogr": 3398,
      "secildi": 3399,
      "girdi": 3400,
      "duzenlenen": 3401,
      "cogun": 3402,
      "jos": 3403,
      "puan": 3404,
      "##nız": 3405,
      "##isel": 3406,
      "##leriyle": 3407,
      "##igine": 3408,
      "engel": 3409,
      "yarat": 3410,
      "char": 3411,
      "okulu": 3412,
      "yalnız": 3413,
      "seklinde": 3414,
      "hes": 3415,
      "iht": 3416,
      "nit": 3417,
      "sing": 3418,
      "##ts": 3419,
      "##ile": 3420,
      "##ulan": 3421,
      "##ılım": 3422,
      "antik": 3423,
      "##kenin": 3424,
      "188": 3425,
      "resim": 3426,
      "sonrasında": 3427,
      "politik": 3428,
      "du": 3429,
      "ilan": 3430,
      "nu": 3431,
      "saf": 3432,
      "wh": 3433,
      "arab": 3434,
      "yıllık": 3435,
      "##lenmistir": 3436,
      "##elerinin": 3437,
      "1981": 3438,
      "yana": 3439,
      "mahk": 3440,
      "konusunda": 3441,
      "dom": 3442,
      "gu": 3443,
      "haber": 3444,
      "nas": 3445,
      "##ham": 3446,
      "##eld": 3447,
      "dair": 3448,
      "yıllarda": 3449,
      "##liam": 3450,
      "konusu": 3451,
      "surec": 3452,
      "uygun": 3453,
      "yani": 3454,
      "otom": 3455,
      "isvec": 3456,
      "cihaz": 3457,
      "ex": 3458,
      "fin": 3459,
      "hap": 3460,
      "lond": 3461,
      "ni": 3462,
      "##ani": 3463,
      "##ene": 3464,
      "yapıl": 3465,
      "kaldır": 3466,
      "sahibi": 3467,
      "1983": 3468,
      "1984": 3469,
      "prot": 3470,
      "bolge": 3471,
      "lisans": 3472,
      "afrika": 3473,
      "katılım": 3474,
      "hafta": 3475,
      "boylece": 3476,
      "got": 3477,
      "gunu": 3478,
      "otur": 3479,
      "##madan": 3480,
      "##layı": 3481,
      "##atas": 3482,
      "##maları": 3483,
      "1987": 3484,
      "oyunları": 3485,
      "vardı": 3486,
      "dikkat": 3487,
      "belediye": 3488,
      "annesi": 3489,
      "acı": 3490,
      "lit": 3491,
      "##kil": 3492,
      "##spor": 3493,
      "##yn": 3494,
      "basın": 3495,
      "adet": 3496,
      "sahn": 3497,
      "##lıgına": 3498,
      "carp": 3499,
      "haned": 3500,
      "belediy": 3501,
      "numar": 3502,
      "kayıt": 3503,
      ".\"": 3504,
      "li": 3505,
      "lik": 3506,
      "net": 3507,
      "not": 3508,
      "play": 3509,
      "##may": 3510,
      "##ling": 3511,
      "##50": 3512,
      "##anlar": 3513,
      "##tion": 3514,
      "kurum": 3515,
      "##ilere": 3516,
      "ozgur": 3517,
      "ates": 3518,
      "yolu": 3519,
      "anlamına": 3520,
      "muhendis": 3521,
      "guzel": 3522,
      "lim": 3523,
      "yogun": 3524,
      "ara": 3525,
      "##tein": 3526,
      "kanal": 3527,
      "calısmaları": 3528,
      "ordusu": 3529,
      "renk": 3530,
      "plat": 3531,
      "ziy": 3532,
      "##masında": 3533,
      "##ena": 3534,
      "##dam": 3535,
      "##edeki": 3536,
      "basında": 3537,
      "##masıyla": 3538,
      "avustur": 3539,
      "sonucunda": 3540,
      "kuvvetleri": 3541,
      "kulubu": 3542,
      "##aray": 3543,
      "veren": 3544,
      "konum": 3545,
      "bilgi": 3546,
      "belg": 3547,
      "##own": 3548,
      "krallık": 3549,
      "modern": 3550,
      "cep": 3551,
      "##meler": 3552,
      "##ida": 3553,
      "##bach": 3554,
      "ayak": 3555,
      "deney": 3556,
      "186": 3557,
      "herhan": 3558,
      "kole": 3559,
      "herhangi": 3560,
      "hus": 3561,
      "tay": 3562,
      "vokal": 3563,
      "##raf": 3564,
      "##mesine": 3565,
      "##mesini": 3566,
      "##ate": 3567,
      "##iyi": 3568,
      "baslayan": 3569,
      "parca": 3570,
      "ulkenin": 3571,
      "kralı": 3572,
      "##ford": 3573,
      "baslangıc": 3574,
      "ip": 3575,
      "kot": 3576,
      "lev": 3577,
      "van": 3578,
      "yav": 3579,
      "yaban": 3580,
      "##we": 3581,
      "##ere": 3582,
      "##ulur": 3583,
      "##imini": 3584,
      "##umus": 3585,
      "##omb": 3586,
      "##tih": 3587,
      "##ilerini": 3588,
      "##lemek": 3589,
      "haline": 3590,
      "##masının": 3591,
      "egitimi": 3592,
      "sıcak": 3593,
      "kardes": 3594,
      "geor": 3595,
      "kelim": 3596,
      "gok": 3597,
      "##sc": 3598,
      "##sef": 3599,
      "##ld": 3600,
      "##ace": 3601,
      "##omet": 3602,
      "##manı": 3603,
      "##egen": 3604,
      "kullanım": 3605,
      "##lastır": 3606,
      "olmus": 3607,
      "1979": 3608,
      "koyu": 3609,
      "bilinir": 3610,
      "sarkıcı": 3611,
      "muslum": 3612,
      "tiyatrosu": 3613,
      "yerlesim": 3614,
      "tasarım": 3615,
      "profesor": 3616,
      "mucadele": 3617,
      "hristiyan": 3618,
      "rap": 3619,
      "web": 3620,
      "##ous": 3621,
      "basına": 3622,
      "dunyanın": 3623,
      "1977": 3624,
      "yanında": 3625,
      "yayınlandı": 3626,
      "mezar": 3627,
      "felsef": 3628,
      "##udu": 3629,
      "##mer": 3630,
      "##meyi": 3631,
      "##hi": 3632,
      "##iyeti": 3633,
      "kapsam": 3634,
      "##liginde": 3635,
      "etkil": 3636,
      "gelenek": 3637,
      "dogumlular": 3638,
      "diy": 3639,
      "##yası": 3640,
      "ettigi": 3641,
      "gorus": 3642,
      "oldugun": 3643,
      "dogum": 3644,
      "serb": 3645,
      "izmir": 3646,
      "sair": 3647,
      "insanlar": 3648,
      "yurut": 3649,
      "vatand": 3650,
      "bunu": 3651,
      "balık": 3652,
      "qu": 3653,
      "##span": 3654,
      "##anda": 3655,
      "ilce": 3656,
      "tarihce": 3657,
      "##arıyla": 3658,
      "yonetimi": 3659,
      "alanında": 3660,
      "##acaktır": 3661,
      "onceki": 3662,
      "matem": 3663,
      "sayıda": 3664,
      "##taydı": 3665,
      "bicim": 3666,
      "style": 3667,
      "dır": 3668,
      "mc": 3669,
      "pak": 3670,
      "sad": 3671,
      "sog": 3672,
      "ton": 3673,
      "teh": 3674,
      "##dıktan": 3675,
      "##cileri": 3676,
      "##urt": 3677,
      "##usunda": 3678,
      "##osk": 3679,
      "yılına": 3680,
      "ork": 3681,
      "parlam": 3682,
      "suriye": 3683,
      "aks": 3684,
      "kanun": 3685,
      "zengin": 3686,
      "mel": 3687,
      "um": 3688,
      "vo": 3689,
      "##digini": 3690,
      "##amıstır": 3691,
      "buz": 3692,
      "arn": 3693,
      "verir": 3694,
      "##ısıyla": 3695,
      "1976": 3696,
      "##ıldıgı": 3697,
      "devleti": 3698,
      "sonrası": 3699,
      "koken": 3700,
      "dunyaya": 3701,
      "enstitusu": 3702,
      "ırk": 3703,
      "cel": 3704,
      "no": 3705,
      "ndan": 3706,
      "wid": 3707,
      "##ny": 3708,
      "##aur": 3709,
      "##res": 3710,
      "##fet": 3711,
      "##ata": 3712,
      "inc": 3713,
      "onur": 3714,
      "gunes": 3715,
      "giris": 3716,
      "eyalet": 3717,
      "oynadı": 3718,
      "amacıyla": 3719,
      "serbest": 3720,
      "iran": 3721,
      "##kanı": 3722,
      "##mız": 3723,
      "##ies": 3724,
      "antr": 3725,
      "tart": 3726,
      "one": 3727,
      "##ive": 3728,
      "toplan": 3729,
      "1959": 3730,
      "metre": 3731,
      "##luluk": 3732,
      "mahal": 3733,
      "kemal": 3734,
      "yahudi": 3735,
      "bog": 3736,
      "cun": 3737,
      "giz": 3738,
      "ner": 3739,
      "ukr": 3740,
      "vur": 3741,
      "zar": 3742,
      "##olf": 3743,
      "tarz": 3744,
      "##taj": 3745,
      "grand": 3746,
      "calısan": 3747,
      "##efa": 3748,
      "forma": 3749,
      "itib": 3750,
      "degildir": 3751,
      "imzal": 3752,
      "gurcistan": 3753,
      "ukray": 3754,
      "dak": 3755,
      "rec": 3756,
      "##nik": 3757,
      "alf": 3758,
      "##azar": 3759,
      "##ecegi": 3760,
      "baslat": 3761,
      "##afa": 3762,
      "unvan": 3763,
      "halinde": 3764,
      "kaybet": 3765,
      "hayvan": 3766,
      "hastan": 3767,
      "galatas": 3768,
      "biridir": 3769,
      "baskanlıgı": 3770,
      "galatasaray": 3771,
      "60": 3772,
      "##lah": 3773,
      "##etim": 3774,
      "biles": 3775,
      "iceren": 3776,
      "gitar": 3777,
      "kavram": 3778,
      "paul": 3779,
      "ispanya": 3780,
      "dek": 3781,
      "hede": 3782,
      "mısır": 3783,
      "pe": 3784,
      "uefa": 3785,
      "##kel": 3786,
      "##tası": 3787,
      "##yken": 3788,
      "##ps": 3789,
      "##za": 3790,
      "##ath": 3791,
      "arası": 3792,
      "ederek": 3793,
      "tarihli": 3794,
      "kategor": 3795,
      "secimler": 3796,
      "kore": 3797,
      "berlin": 3798,
      "elektrik": 3799,
      "oldukca": 3800,
      "arkadas": 3801,
      "hac": 3802,
      "sap": 3803,
      "##ilya": 3804,
      "##ital": 3805,
      "baslar": 3806,
      "##ahce": 3807,
      "##ilmek": 3808,
      "turkce": 3809,
      "park": 3810,
      "filmleri": 3811,
      "avustr": 3812,
      "1973": 3813,
      "1974": 3814,
      "1968": 3815,
      "sezonu": 3816,
      "metr": 3817,
      "kızıl": 3818,
      "sorun": 3819,
      "sembol": 3820,
      "hicbir": 3821,
      "siddet": 3822,
      "piyas": 3823,
      "##car": 3824,
      "##ette": 3825,
      "##igin": 3826,
      "etmektedir": 3827,
      "##rail": 3828,
      "##opol": 3829,
      "arka": 3830,
      "grubun": 3831,
      "colspan": 3832,
      "bizans": 3833,
      "musluman": 3834,
      "90": 3835,
      "ph": 3836,
      "##teri": 3837,
      "##esindeki": 3838,
      "##isay": 3839,
      "ism": 3840,
      "edilmis": 3841,
      "macta": 3842,
      "1958": 3843,
      "saglık": 3844,
      "izin": 3845,
      "normal": 3846,
      "oyuncusu": 3847,
      "klasik": 3848,
      "matematik": 3849,
      "hip": 3850,
      "hind": 3851,
      "my": 3852,
      "ste": 3853,
      "##ıyla": 3854,
      "##desi": 3855,
      "##diler": 3856,
      "##ekli": 3857,
      "##ulmustur": 3858,
      "##ırı": 3859,
      "##ision": 3860,
      "gecti": 3861,
      "1966": 3862,
      "kayb": 3863,
      "secim": 3864,
      "canlandır": 3865,
      "kıy": 3866,
      "artık": 3867,
      "sebep": 3868,
      "bilgisay": 3869,
      "ticaret": 3870,
      "basbakan": 3871,
      "isgal": 3872,
      "iddia": 3873,
      "parlament": 3874,
      "\")": 3875,
      "40": 3876,
      "iler": 3877,
      "##gunda": 3878,
      "##yol": 3879,
      "##ira": 3880,
      "##iri": 3881,
      "##elerini": 3882,
      "bolun": 3883,
      "kalk": 3884,
      "yazarı": 3885,
      "katkı": 3886,
      "kuruldu": 3887,
      "muham": 3888,
      "yarısması": 3889,
      "populer": 3890,
      "enerji": 3891,
      "londra": 3892,
      "buna": 3893,
      "jack": 3894,
      "lu": 3895,
      "ros": 3896,
      "##kin": 3897,
      "##gan": 3898,
      "##astır": 3899,
      "##atif": 3900,
      "olc": 3901,
      "##ita": 3902,
      "##aba": 3903,
      "##ebil": 3904,
      "oynan": 3905,
      "olusur": 3906,
      "kadınlar": 3907,
      "##layarak": 3908,
      "itibarıyla": 3909,
      "cr": 3910,
      "city": 3911,
      "gul": 3912,
      "ker": 3913,
      "nik": 3914,
      "pap": 3915,
      "psik": 3916,
      "##etik": 3917,
      "birey": 3918,
      "##lanması": 3919,
      "##ilerek": 3920,
      "verdigi": 3921,
      "cıkıs": 3922,
      "tanrı": 3923,
      "1975": 3924,
      "macında": 3925,
      "eger": 3926,
      "kurulmustur": 3927,
      "uretim": 3928,
      "odulleri": 3929,
      "yunanistan": 3930,
      "hızlı": 3931,
      "robert": 3932,
      "cocugu": 3933,
      "00": 3934,
      "cad": 3935,
      "duk": 3936,
      "yık": 3937,
      "##tel": 3938,
      "##ck": 3939,
      "##ano": 3940,
      "##ura": 3941,
      "##lugunu": 3942,
      "uzay": 3943,
      "bulgar": 3944,
      "tank": 3945,
      "##obil": 3946,
      "1950": 3947,
      "ressam": 3948,
      "abdul": 3949,
      "yardımcısı": 3950,
      "uygulama": 3951,
      "muhammed": 3952,
      "gid": 3953,
      "koc": 3954,
      "ro": 3955,
      "ucak": 3956,
      "##fa": 3957,
      "##mez": 3958,
      "##iot": 3959,
      "##by": 3960,
      "olabilir": 3961,
      "anda": 3962,
      "bildir": 3963,
      "gecer": 3964,
      "1972": 3965,
      "##masından": 3966,
      "kendisi": 3967,
      "##eksiyon": 3968,
      "guvenlik": 3969,
      "ekonomik": 3970,
      "world": 3971,
      "single": 3972,
      "civ": 3973,
      "hom": 3974,
      "yo": 3975,
      "##madı": 3976,
      "##iyah": 3977,
      "##adaki": 3978,
      "##acagı": 3979,
      "ayında": 3980,
      "donan": 3981,
      "kalın": 3982,
      "tamamladı": 3983,
      "##off": 3984,
      "##berg": 3985,
      "william": 3986,
      "radyo": 3987,
      "demokr": 3988,
      "dernegi": 3989,
      "yabancı": 3990,
      "hindistan": 3991,
      "day": 3992,
      "kod": 3993,
      "veri": 3994,
      "wal": 3995,
      "ismi": 3996,
      "yılın": 3997,
      "yontem": 3998,
      "takımın": 3999,
      "duzey": 4000,
      "##ows": 4001,
      "tamamen": 4002,
      "eserleri": 4003,
      "iii": 4004,
      "kırmız": 4005,
      "zorunda": 4006,
      "james": 4007,
      "bank": 4008,
      "tav": 4009,
      "##tis": 4010,
      "##20": 4011,
      "olsa": 4012,
      "##iste": 4013,
      "##aga": 4014,
      "oner": 4015,
      "ett": 4016,
      "general": 4017,
      "stat": 4018,
      "hakim": 4019,
      "ticari": 4020,
      "tanıt": 4021,
      "avustralya": 4022,
      "ep": 4023,
      "eb": 4024,
      "fo": 4025,
      "sit": 4026,
      "##ılmaktadır": 4027,
      "##ısından": 4028,
      "##ısının": 4029,
      "isaret": 4030,
      "kurdu": 4031,
      "##elerine": 4032,
      "dogal": 4033,
      "1965": 4034,
      "off": 4035,
      "david": 4036,
      "kitabı": 4037,
      "mehmet": 4038,
      "cunku": 4039,
      "hedef": 4040,
      "alarak": 4041,
      "fab": 4042,
      "##dr": 4043,
      "##gec": 4044,
      "##arlar": 4045,
      "##ann": 4046,
      "##usal": 4047,
      "basrol": 4048,
      "##lif": 4049,
      "##oks": 4050,
      "##mıstı": 4051,
      "##maktaydı": 4052,
      "##lenmis": 4053,
      "##elere": 4054,
      "uyeleri": 4055,
      "toplulu": 4056,
      "1971": 4057,
      "1967": 4058,
      "komp": 4059,
      "malz": 4060,
      "kolay": 4061,
      "taban": 4062,
      "yalnızca": 4063,
      "36": 4064,
      "fon": 4065,
      "kamp": 4066,
      "lo": 4067,
      "tuk": 4068,
      "yed": 4069,
      "##mon": 4070,
      "##ward": 4071,
      "1961": 4072,
      "icerir": 4073,
      "hukumeti": 4074,
      "bunlar": 4075,
      "seviy": 4076,
      "gitti": 4077,
      "ekip": 4078,
      "##acagını": 4079,
      "500": 4080,
      "aj": 4081,
      "dam": 4082,
      "doc": 4083,
      "yes": 4084,
      "##ae": 4085,
      "##ınca": 4086,
      "olcu": 4087,
      "israil": 4088,
      "ettir": 4089,
      "dondu": 4090,
      "1969": 4091,
      "trab": 4092,
      "donemi": 4093,
      "boyut": 4094,
      "1955": 4095,
      "dusuk": 4096,
      "senar": 4097,
      "yeten": 4098,
      "uygulan": 4099,
      "##dikten": 4100,
      "fenerb": 4101,
      "##ecegini": 4102,
      "vatandas": 4103,
      "kırmızı": 4104,
      "hil": 4105,
      "jul": 4106,
      "lov": 4107,
      "mol": 4108,
      "##ılarak": 4109,
      "##go": 4110,
      "##ille": 4111,
      "##emen": 4112,
      "##agan": 4113,
      "##lidir": 4114,
      "esit": 4115,
      "verildi": 4116,
      "filmin": 4117,
      "##ladıgı": 4118,
      "1962": 4119,
      "kapat": 4120,
      "sehri": 4121,
      "sampiyonlugu": 4122,
      "kıbr": 4123,
      "dogrudan": 4124,
      "duyur": 4125,
      "ihtiy": 4126,
      "width": 4127,
      "bilgisayar": 4128,
      "kıbrıs": 4129,
      "ka": 4130,
      "mun": 4131,
      "nı": 4132,
      "we": 4133,
      "##fik": 4134,
      "##asya": 4135,
      "orij": 4136,
      "esi": 4137,
      "adına": 4138,
      "sand": 4139,
      "uzerinden": 4140,
      "korun": 4141,
      "yuzyılın": 4142,
      "aile": 4143,
      "komutan": 4144,
      "sefer": 4145,
      "atandı": 4146,
      "meydana": 4147,
      "takip": 4148,
      "fenerbahce": 4149,
      "dip": 4150,
      "emek": 4151,
      "sl": 4152,
      "tw": 4153,
      "you": 4154,
      "##au": 4155,
      "##kis": 4156,
      "##bon": 4157,
      "##ese": 4158,
      "##ded": 4159,
      "##ılabilir": 4160,
      "##adır": 4161,
      "isken": 4162,
      "##esidir": 4163,
      "##okulu": 4164,
      "##mada": 4165,
      "##ucusu": 4166,
      "versiyon": 4167,
      "hale": 4168,
      "bakım": 4169,
      "nedenle": 4170,
      "krallıgı": 4171,
      "tahta": 4172,
      "gozlem": 4173,
      "degerlendir": 4174,
      "kamu": 4175,
      "sebeb": 4176,
      "kısmı": 4177,
      "milletvekili": 4178,
      "avusturya": 4179,
      "ukrayna": 4180,
      "orijinal": 4181,
      "dord": 4182,
      "duvar": 4183,
      "ib": 4184,
      "kli": 4185,
      "poz": 4186,
      "tuz": 4187,
      "##bey": 4188,
      "##arında": 4189,
      "ars": 4190,
      "sona": 4191,
      "suren": 4192,
      "deste": 4193,
      "urun": 4194,
      "savunma": 4195,
      "nehri": 4196,
      "venedik": 4197,
      "cay": 4198,
      "fat": 4199,
      "hur": 4200,
      "##po": 4201,
      "##30": 4202,
      "##are": 4203,
      "##ırlar": 4204,
      "##itler": 4205,
      "anal": 4206,
      "oyunu": 4207,
      "kullanıcı": 4208,
      "gre": 4209,
      "##ife": 4210,
      "##uyle": 4211,
      "britan": 4212,
      "bolumunde": 4213,
      "barıs": 4214,
      "ailesi": 4215,
      "ogretim": 4216,
      "jean": 4217,
      "macaristan": 4218,
      "dini": 4219,
      "iv": 4220,
      "lak": 4221,
      "pos": 4222,
      "siyah": 4223,
      "tom": 4224,
      "##19": 4225,
      "##ence": 4226,
      "##elli": 4227,
      "birim": 4228,
      "depr": 4229,
      "incel": 4230,
      "etmis": 4231,
      "yasak": 4232,
      "frank": 4233,
      "kanada": 4234,
      "brez": 4235,
      "kendini": 4236,
      "rolunde": 4237,
      "##isyonu": 4238,
      "app": 4239,
      "organiz": 4240,
      "orkest": 4241,
      ")'": 4242,
      "fe": 4243,
      "feth": 4244,
      "ob": 4245,
      "yu": 4246,
      "##ner": 4247,
      "##ty": 4248,
      "##bat": 4249,
      "##asındaki": 4250,
      "##ish": 4251,
      "##ulmus": 4252,
      "islev": 4253,
      "unit": 4254,
      "para": 4255,
      "ermen": 4256,
      "stud": 4257,
      "kanat": 4258,
      "muhaf": 4259,
      "ulkede": 4260,
      "oyuncular": 4261,
      "lisesi": 4262,
      "##ational": 4263,
      "sporcu": 4264,
      "seslendir": 4265,
      "agırlık": 4266,
      "elektron": 4267,
      "japon": 4268,
      "festivali": 4269,
      "paylas": 4270,
      "lin": 4271,
      "yedi": 4272,
      "##ney": 4273,
      "##diginde": 4274,
      "##col": 4275,
      "##cev": 4276,
      "##ildigi": 4277,
      "##ahat": 4278,
      "##ical": 4279,
      "yonelik": 4280,
      "muzesi": 4281,
      "yayınlanan": 4282,
      "##lıga": 4283,
      "hastal": 4284,
      "yayımlanan": 4285,
      "sabit": 4286,
      "japonya": 4287,
      "geleneksel": 4288,
      "cas": 4289,
      "pal": 4290,
      "rep": 4291,
      "sy": 4292,
      "teki": 4293,
      "tıp": 4294,
      "##mayan": 4295,
      "##do": 4296,
      "##gunun": 4297,
      "##uri": 4298,
      "basta": 4299,
      "yapmak": 4300,
      "amator": 4301,
      "gecm": 4302,
      "sanay": 4303,
      "184": 4304,
      "mill": 4305,
      "1964": 4306,
      "evl": 4307,
      "sekiz": 4308,
      "##ligine": 4309,
      "metal": 4310,
      "madal": 4311,
      "sosyalist": 4312,
      "yahud": 4313,
      "lerde": 4314,
      "arkadası": 4315,
      "mustafa": 4316,
      "sivil": 4317,
      "akademisi": 4318,
      "micha": 4319,
      "hesap": 4320,
      "400": 4321,
      "kg": 4322,
      "rut": 4323,
      "ruh": 4324,
      "tap": 4325,
      "vic": 4326,
      "##ff": 4327,
      "##sin": 4328,
      "##ash": 4329,
      "##ilim": 4330,
      "##amet": 4331,
      "olumu": 4332,
      "##aden": 4333,
      "anah": 4334,
      "ortal": 4335,
      "##round": 4336,
      "topluluk": 4337,
      "olmadı": 4338,
      "calısmaya": 4339,
      "star": 4340,
      "bolgede": 4341,
      "##uyu": 4342,
      "christ": 4343,
      "kazanan": 4344,
      "oynadıgı": 4345,
      "kisisel": 4346,
      "##form": 4347,
      "hollanda": 4348,
      "los": 4349,
      "nak": 4350,
      "som": 4351,
      "terk": 4352,
      "von": 4353,
      "##ood": 4354,
      "##azı": 4355,
      "isyan": 4356,
      "##larındaki": 4357,
      "##ezi": 4358,
      "adında": 4359,
      "1930": 4360,
      "telef": 4361,
      "gures": 4362,
      "satın": 4363,
      "nufusu": 4364,
      "kariyerine": 4365,
      "iletisim": 4366,
      "hucr": 4367,
      "cogunluk": 4368,
      "ziyaret": 4369,
      "michael": 4370,
      "(\"": 4371,
      "back": 4372,
      "dos": 4373,
      "far": 4374,
      "##cının": 4375,
      "##ery": 4376,
      "##endi": 4377,
      "##illi": 4378,
      "##ona": 4379,
      "##ulus": 4380,
      "istih": 4381,
      "ilg": 4382,
      "yapıldı": 4383,
      "etraf": 4384,
      "kurucu": 4385,
      "uzman": 4386,
      "##ilerine": 4387,
      "edit": 4388,
      "##cılar": 4389,
      "bolgesinde": 4390,
      "##lige": 4391,
      "belirli": 4392,
      "kendisine": 4393,
      "terc": 4394,
      "adamı": 4395,
      "sovyetler": 4396,
      "etkinlik": 4397,
      "##malı": 4398,
      "##meyen": 4399,
      "##say": 4400,
      "##ıyor": 4401,
      "##dın": 4402,
      "##aktadır": 4403,
      "##amıs": 4404,
      "##ledi": 4405,
      "##isidir": 4406,
      "asl": 4407,
      "asya": 4408,
      "##elerinden": 4409,
      "yarım": 4410,
      "aktar": 4411,
      "1956": 4412,
      "kisinin": 4413,
      "besik": 4414,
      "oncesi": 4415,
      "olimpiyatları": 4416,
      "dagıt": 4417,
      "arnav": 4418,
      ".,": 4419,
      "ban": 4420,
      "disk": 4421,
      "luc": 4422,
      "vad": 4423,
      "##mar": 4424,
      "##lus": 4425,
      "##tle": 4426,
      "##isinden": 4427,
      "##dav": 4428,
      "##led": 4429,
      "##uman": 4430,
      "##eyn": 4431,
      "##age": 4432,
      "tarım": 4433,
      "karıs": 4434,
      "yapılmıstır": 4435,
      "ayır": 4436,
      "bulunmustur": 4437,
      "maked": 4438,
      "istem": 4439,
      "kisilik": 4440,
      "saray": 4441,
      "kesin": 4442,
      "cizgi": 4443,
      "defa": 4444,
      "kilisesi": 4445,
      "baskenti": 4446,
      "arnavut": 4447,
      "32": 4448,
      "fam": 4449,
      "gumus": 4450,
      "ku": 4451,
      "pil": 4452,
      "rev": 4453,
      "wind": 4454,
      "birinc": 4455,
      "##lex": 4456,
      "##agın": 4457,
      "##arken": 4458,
      "sahne": 4459,
      "gorevi": 4460,
      "macı": 4461,
      "canlı": 4462,
      "andre": 4463,
      "gurbet": 4464,
      "satıs": 4465,
      "heykel": 4466,
      "cumhurbaskanı": 4467,
      "piyasaya": 4468,
      "dorduncu": 4469,
      "42": 4470,
      "lid": 4471,
      "leh": 4472,
      "mul": 4473,
      "mum": 4474,
      "mom": 4475,
      "nar": 4476,
      "pers": 4477,
      "sas": 4478,
      "##kar": 4479,
      "##kun": 4480,
      "##ril": 4481,
      "##erler": 4482,
      "##ısız": 4483,
      "##iyel": 4484,
      "all": 4485,
      "yapmıs": 4486,
      "kurtar": 4487,
      "##lenmesi": 4488,
      "eskis": 4489,
      "##uyor": 4490,
      "1957": 4491,
      "ortam": 4492,
      "1945": 4493,
      "makin": 4494,
      "istat": 4495,
      "sorumlu": 4496,
      "dolay": 4497,
      "edilmektedir": 4498,
      "standar": 4499,
      "bg": 4500,
      "ca": 4501,
      "div": 4502,
      "hor": 4503,
      "phil": 4504,
      "sus": 4505,
      "tour": 4506,
      "##raman": 4507,
      "##lılık": 4508,
      "##ger": 4509,
      "##ilebilir": 4510,
      "##eligi": 4511,
      "##amb": 4512,
      "yılının": 4513,
      "##elerden": 4514,
      "aktif": 4515,
      "sekret": 4516,
      "gorevini": 4517,
      "madd": 4518,
      "bitk": 4519,
      "hukumdar": 4520,
      "sirketi": 4521,
      "fransızca": 4522,
      "aracılıgı": 4523,
      "ozellikleri": 4524,
      "nokta": 4525,
      "fiziksel": 4526,
      "sozlesme": 4527,
      "love": 4528,
      "iken": 4529,
      "lou": 4530,
      "pazar": 4531,
      "yum": 4532,
      "##ys": 4533,
      "##che": 4534,
      "##blem": 4535,
      "##10": 4536,
      "##lardı": 4537,
      "##ulen": 4538,
      "##deniz": 4539,
      "##omas": 4540,
      "yazdıgı": 4541,
      "olmasına": 4542,
      "##iforn": 4543,
      "sayılı": 4544,
      "1944": 4545,
      "bazen": 4546,
      "yetistir": 4547,
      "dalga": 4548,
      "kahraman": 4549,
      "muharebesi": 4550,
      "eskisehir": 4551,
      "35": 4552,
      "80": 4553,
      "ho": 4554,
      "leg": 4555,
      "mosk": 4556,
      "pad": 4557,
      "ra": 4558,
      "##kur": 4559,
      "##tık": 4560,
      "##va": 4561,
      "aleks": 4562,
      "##edr": 4563,
      "##eyman": 4564,
      "##ech": 4565,
      "ilac": 4566,
      "##ever": 4567,
      "gordu": 4568,
      "##laması": 4569,
      "##tern": 4570,
      "tedav": 4571,
      "filminde": 4572,
      "ermeni": 4573,
      "185": 4574,
      "derin": 4575,
      "okyan": 4576,
      "sayesinde": 4577,
      "kabil": 4578,
      "imparatorluk": 4579,
      "kutup": 4580,
      "hayatını": 4581,
      "konstan": 4582,
      "yoktur": 4583,
      "tasıyan": 4584,
      "silahlı": 4585,
      "nazi": 4586,
      "rekor": 4587,
      "aslında": 4588,
      "besiktas": 4589,
      "nov": 4590,
      "##ko": 4591,
      "##sı": 4592,
      "##iner": 4593,
      "olma": 4594,
      "##itik": 4595,
      "##ilerinin": 4596,
      "sergil": 4597,
      "muzis": 4598,
      "saglamak": 4599,
      "1940": 4600,
      "polonya": 4601,
      "saint": 4602,
      "cins": 4603,
      "alındı": 4604,
      "suleyman": 4605,
      "yurt": 4606,
      "##yasal": 4607,
      "kotu": 4608,
      "by": 4609,
      "bon": 4610,
      "elem": 4611,
      "hep": 4612,
      "nuk": 4613,
      "ned": 4614,
      "##red": 4615,
      "##har": 4616,
      "##ios": 4617,
      "##cılı": 4618,
      "##ume": 4619,
      "##iginden": 4620,
      "aydın": 4621,
      "kural": 4622,
      "asam": 4623,
      "asit": 4624,
      "akım": 4625,
      "yazdı": 4626,
      "dusman": 4627,
      "bilinmektedir": 4628,
      "hareketi": 4629,
      "mesaf": 4630,
      "bilimsel": 4631,
      "bahs": 4632,
      "medya": 4633,
      "catısma": 4634,
      "asagıdaki": 4635,
      "):": 4636,
      "hiss": 4637,
      "pen": 4638,
      "##mesiyle": 4639,
      "##sul": 4640,
      "##dıs": 4641,
      "##taki": 4642,
      "##ground": 4643,
      "##que": 4644,
      "##uru": 4645,
      "##ırken": 4646,
      "##amaz": 4647,
      "##ola": 4648,
      "##olik": 4649,
      "##emin": 4650,
      "##ague": 4651,
      "##osaur": 4652,
      "anay": 4653,
      "yapılmıs": 4654,
      "##makta": 4655,
      "kongr": 4656,
      "kullanarak": 4657,
      "filmde": 4658,
      "actı": 4659,
      "##ings": 4660,
      "##ington": 4661,
      "ayrıl": 4662,
      "1963": 4663,
      "kazak": 4664,
      "egemen": 4665,
      "1952": 4666,
      "##mekte": 4667,
      "bazıları": 4668,
      "getirildi": 4669,
      "real": 4670,
      "yenil": 4671,
      "erkekler": 4672,
      "kosul": 4673,
      "nerede": 4674,
      "75": 4675,
      "fc": 4676,
      "ili": 4677,
      "lab": 4678,
      "mm": 4679,
      "wat": 4680,
      "with": 4681,
      "##ugu": 4682,
      "##ıf": 4683,
      "##iet": 4684,
      "##yse": 4685,
      "##ve": 4686,
      "##zi": 4687,
      "##ela": 4688,
      "##ect": 4689,
      "yıllar": 4690,
      "##ilerden": 4691,
      "##oto": 4692,
      "bilimler": 4693,
      "dogan": 4694,
      "gecmis": 4695,
      "hala": 4696,
      "karsılık": 4697,
      "saglar": 4698,
      "korum": 4699,
      "##araj": 4700,
      "##lıgın": 4701,
      "lee": 4702,
      "gurcu": 4703,
      "genclik": 4704,
      "cami": 4705,
      "ahmet": 4706,
      "ısı": 4707,
      "gemi": 4708,
      "isvic": 4709,
      "ispanyol": 4710,
      "formul": 4711,
      "asıllı": 4712,
      "yesil": 4713,
      "adana": 4714,
      "cil": 4715,
      "hun": 4716,
      "jac": 4717,
      "ndeki": 4718,
      "test": 4719,
      "yeri": 4720,
      "##yap": 4721,
      "##ure": 4722,
      "##ami": 4723,
      "##emesi": 4724,
      "##azi": 4725,
      "basv": 4726,
      "guncel": 4727,
      "##tadan": 4728,
      "gerekt": 4729,
      "kazanmıstır": 4730,
      "etkili": 4731,
      "manastır": 4732,
      "calısmalar": 4733,
      "##alandı": 4734,
      "gecirdi": 4735,
      "enerj": 4736,
      "belediyesi": 4737,
      "##iotis": 4738,
      "istatistik": 4739,
      "300": 4740,
      "cid": 4741,
      "hır": 4742,
      "had": 4743,
      "lı": 4744,
      "pl": 4745,
      "##fı": 4746,
      "##meleri": 4747,
      "##sim": 4748,
      "##bc": 4749,
      "##imark": 4750,
      "##lanma": 4751,
      "iste": 4752,
      "##esif": 4753,
      "baslarında": 4754,
      "indir": 4755,
      "##ico": 4756,
      "yerli": 4757,
      "yerini": 4758,
      "bile": 4759,
      "bill": 4760,
      "surum": 4761,
      "kullanıldı": 4762,
      "yasadı": 4763,
      "akdeniz": 4764,
      "yazılım": 4765,
      "haliotis": 4766,
      "acıl": 4767,
      "atlet": 4768,
      "musab": 4769,
      "yorum": 4770,
      "tutuk": 4771,
      "miktar": 4772,
      "capında": 4773,
      "federasyonu": 4774,
      "siyasetci": 4775,
      "internet": 4776,
      "hanedanı": 4777,
      "ihtiyac": 4778,
      "moskova": 4779,
      "konstantin": 4780,
      "04": 4781,
      "bet": 4782,
      "fu": 4783,
      "fern": 4784,
      "ndaki": 4785,
      "ters": 4786,
      "zaf": 4787,
      "##nan": 4788,
      "##rac": 4789,
      "##sar": 4790,
      "##sak": 4791,
      "##seri": 4792,
      "##ster": 4793,
      "##ski": 4794,
      "##yum": 4795,
      "##ındır": 4796,
      "##undeki": 4797,
      "##dat": 4798,
      "##imli": 4799,
      "almıs": 4800,
      "oran": 4801,
      "etmeye": 4802,
      "yerlestir": 4803,
      "kullanımı": 4804,
      "yuzey": 4805,
      "serv": 4806,
      "komun": 4807,
      "danimark": 4808,
      "1954": 4809,
      "gosterir": 4810,
      "1948": 4811,
      "hast": 4812,
      "benim": 4813,
      "kraliyet": 4814,
      "sinem": 4815,
      "teslim": 4816,
      "kasab": 4817,
      "davran": 4818,
      "sınırları": 4819,
      "kusat": 4820,
      "voley": 4821,
      "studyo": 4822,
      "dub": 4823,
      "ray": 4824,
      "sis": 4825,
      "sans": 4826,
      "##way": 4827,
      "##gına": 4828,
      "##urlu": 4829,
      "sonu": 4830,
      "yaparak": 4831,
      "yapılır": 4832,
      "yerde": 4833,
      "esas": 4834,
      "surekli": 4835,
      "##lıkla": 4836,
      "belc": 4837,
      "gecmistir": 4838,
      "ekran": 4839,
      "yukarı": 4840,
      "donemin": 4841,
      "gosteren": 4842,
      "1942": 4843,
      "1946": 4844,
      "cekir": 4845,
      "metin": 4846,
      "polis": 4847,
      "arke": 4848,
      "tahmin": 4849,
      "kutsal": 4850,
      "kimyasal": 4851,
      "baslamıs": 4852,
      "yapımcı": 4853,
      "black": 4854,
      "rapor": 4855,
      "imzaladı": 4856,
      "anahtar": 4857,
      "voleybol": 4858,
      "70": 4859,
      "cic": 4860,
      "cograf": 4861,
      "gov": 4862,
      "jon": 4863,
      "mav": 4864,
      "nah": 4865,
      "nef": 4866,
      "tok": 4867,
      "vaz": 4868,
      "zır": 4869,
      "##koy": 4870,
      "##rah": 4871,
      "##80": 4872,
      "##ald": 4873,
      "##eydi": 4874,
      "##izi": 4875,
      "yapısı": 4876,
      "onay": 4877,
      "##tip": 4878,
      "uzerindeki": 4879,
      "ayrıldı": 4880,
      "##uvarı": 4881,
      "sıral": 4882,
      "varlık": 4883,
      "sertif": 4884,
      "kısım": 4885,
      "soylem": 4886,
      "babasının": 4887,
      "sınav": 4888,
      "iliskin": 4889,
      "insaat": 4890,
      "akademi": 4891,
      "soci": 4892,
      "meclisi": 4893,
      "mevcuttur": 4894,
      "brezilya": 4895,
      "cogunlukla": 4896,
      "standart": 4897,
      "aracılıgıyla": 4898,
      "bob": 4899,
      "cab": 4900,
      "diye": 4901,
      "kagı": 4902,
      "mi": 4903,
      "mich": 4904,
      "##des": 4905,
      "##cilik": 4906,
      "##26": 4907,
      "##isiyle": 4908,
      "##ekiz": 4909,
      "##ati": 4910,
      "##usunun": 4911,
      "isimler": 4912,
      "##edigi": 4913,
      "##acılık": 4914,
      "basit": 4915,
      "baslı": 4916,
      "##malar": 4917,
      "adr": 4918,
      "gece": 4919,
      "erz": 4920,
      "halen": 4921,
      "protein": 4922,
      "danıs": 4923,
      "1953": 4924,
      "yanl": 4925,
      "kıyı": 4926,
      "kulturel": 4927,
      "kullanılmaktadır": 4928,
      "nesn": 4929,
      "degisiklik": 4930,
      "tasındı": 4931,
      "yavas": 4932,
      "alfab": 4933,
      "istihbar": 4934,
      "01": 4935,
      "45": 4936,
      "dor": 4937,
      "dili": 4938,
      "fi": 4939,
      "flor": 4940,
      "jan": 4941,
      "kanı": 4942,
      "sarı": 4943,
      "war": 4944,
      "##mel": 4945,
      "##meden": 4946,
      "##pes": 4947,
      "##iro": 4948,
      "##illa": 4949,
      "##isa": 4950,
      "olacak": 4951,
      "dep": 4952,
      "isci": 4953,
      "##eck": 4954,
      "orman": 4955,
      "orada": 4956,
      "##raj": 4957,
      "##otik": 4958,
      "kullanılmıstır": 4959,
      "gunluk": 4960,
      "uye": 4961,
      "denk": 4962,
      "attı": 4963,
      "fri": 4964,
      "sırp": 4965,
      "komisyonu": 4966,
      "odak": 4967,
      "muzigi": 4968,
      "saglayan": 4969,
      "yayınlan": 4970,
      "sanatcısı": 4971,
      "etkisi": 4972,
      "acıkladı": 4973,
      "meslek": 4974,
      "kilise": 4975,
      "seyahat": 4976,
      "bununla": 4977,
      "bilgiler": 4978,
      "ceza": 4979,
      "##aturk": 4980,
      "yemek": 4981,
      "tuket": 4982,
      "dipl": 4983,
      "37": 4984,
      "64": 4985,
      "baraj": 4986,
      "dısı": 4987,
      "his": 4988,
      "kov": 4989,
      "nam": 4990,
      "pey": 4991,
      "sn": 4992,
      "wr": 4993,
      "##ruk": 4994,
      "##my": 4995,
      "##lası": 4996,
      "##gini": 4997,
      "##ven": 4998,
      "##con": 4999,
      "##cesi": 5000,
      "##unlu": 5001,
      "##urum": 5002,
      "##elt": 5003,
      "##abilen": 5004,
      "##gız": 5005,
      "kalp": 5006,
      "yasal": 5007,
      "##alıgı": 5008,
      "akr": 5009,
      "##usuf": 5010,
      "cıkmıstır": 5011,
      "kazı": 5012,
      "yuzden": 5013,
      "altına": 5014,
      "yonetic": 5015,
      "kurulmus": 5016,
      "sarkısı": 5017,
      "sampiyonlar": 5018,
      "kendisini": 5019,
      "1939": 5020,
      "baba": 5021,
      "terim": 5022,
      "1920": 5023,
      "cıkart": 5024,
      "bunların": 5025,
      "1919": 5026,
      "yasındayken": 5027,
      "portekiz": 5028,
      "meclis": 5029,
      "sehrin": 5030,
      "....": 5031,
      "fikir": 5032,
      "soyledi": 5033,
      "platform": 5034,
      "mahalle": 5035,
      "windows": 5036,
      "lideri": 5037,
      "nedeni": 5038,
      "zırh": 5039,
      "agr": 5040,
      "dans": 5041,
      "meks": 5042,
      "nehir": 5043,
      "ode": 5044,
      "rum": 5045,
      "rich": 5046,
      "wolf": 5047,
      "##yar": 5048,
      "##asi": 5049,
      "##amaya": 5050,
      "birimi": 5051,
      "##ledigi": 5052,
      "araya": 5053,
      "ilgi": 5054,
      "karaden": 5055,
      "##mail": 5056,
      "vermistir": 5057,
      "tarihleri": 5058,
      "kadro": 5059,
      "saha": 5060,
      "##ilenin": 5061,
      "tanıs": 5062,
      "takımlar": 5063,
      "haric": 5064,
      "##orth": 5065,
      "##ando": 5066,
      "champ": 5067,
      "durumu": 5068,
      "koruma": 5069,
      "eylem": 5070,
      "1943": 5071,
      "##lıgında": 5072,
      "sosy": 5073,
      "##antin": 5074,
      "durumda": 5075,
      "kentinde": 5076,
      "antlas": 5077,
      "olcude": 5078,
      "ortalama": 5079,
      "background": 5080,
      "mumkun": 5081,
      "moment": 5082,
      ")\"": 5083,
      "dov": 5084,
      "gam": 5085,
      "gucu": 5086,
      "ileri": 5087,
      "nad": 5088,
      "oda": 5089,
      "por": 5090,
      "tac": 5091,
      "tuf": 5092,
      "up": 5093,
      "yusuf": 5094,
      "##kır": 5095,
      "##don": 5096,
      "##gam": 5097,
      "##vec": 5098,
      "##ja": 5099,
      "##alim": 5100,
      "##amadı": 5101,
      "##iyatı": 5102,
      "istif": 5103,
      "arch": 5104,
      "anne": 5105,
      "kararı": 5106,
      "##ilerde": 5107,
      "##ekten": 5108,
      "ert": 5109,
      "evlendi": 5110,
      "insanı": 5111,
      "durdur": 5112,
      "sozcu": 5113,
      "dısisleri": 5114,
      "leon": 5115,
      "olusturan": 5116,
      "listesinde": 5117,
      "max": 5118,
      "ilcesine": 5119,
      "idari": 5120,
      "##dogu": 5121,
      "baslangıcta": 5122,
      "gizli": 5123,
      "unvanını": 5124,
      "britanya": 5125,
      "muzisyen": 5126,
      "istihbarat": 5127,
      "karadeniz": 5128,
      "33": 5129,
      "56": 5130,
      "edi": 5131,
      "gom": 5132,
      "piyan": 5133,
      "##nam": 5134,
      "##ee": 5135,
      "##bası": 5136,
      "birden": 5137,
      "##emistir": 5138,
      "##eyle": 5139,
      "arj": 5140,
      "karab": 5141,
      "onları": 5142,
      "oranı": 5143,
      "##lendigi": 5144,
      "##cia": 5145,
      "##alıdır": 5146,
      "akıs": 5147,
      "graf": 5148,
      "calıstır": 5149,
      "##estir": 5150,
      "stil": 5151,
      "##ment": 5152,
      "kaydet": 5153,
      "ikinc": 5154,
      "muhtem": 5155,
      "##hane": 5156,
      "rusca": 5157,
      "madde": 5158,
      "uretimi": 5159,
      "alınan": 5160,
      "kemer": 5161,
      "##abilecek": 5162,
      "##mamıs": 5163,
      "ekonomi": 5164,
      "omer": 5165,
      "festival": 5166,
      "vakfı": 5167,
      "cercev": 5168,
      "haw": 5169,
      "tehlik": 5170,
      "tartısma": 5171,
      "deprem": 5172,
      "##color": 5173,
      "telefon": 5174,
      "bgcolor": 5175,
      "nukle": 5176,
      "neredeyse": 5177,
      "isvicre": 5178,
      "47": 5179,
      "alex": 5180,
      "gro": 5181,
      "gider": 5182,
      "ht": 5183,
      "kn": 5184,
      "nba": 5185,
      "que": 5186,
      "rot": 5187,
      "tır": 5188,
      "tol": 5189,
      "tug": 5190,
      "##nes": 5191,
      "##mo": 5192,
      "##mur": 5193,
      "##iel": 5194,
      "##yuz": 5195,
      "##vanı": 5196,
      "##pit": 5197,
      "##cılıgı": 5198,
      "##aspor": 5199,
      "##aleti": 5200,
      "birlestir": 5201,
      "almak": 5202,
      "##ige": 5203,
      "##iger": 5204,
      "isb": 5205,
      "##edildi": 5206,
      "buda": 5207,
      "##agu": 5208,
      "##uck": 5209,
      "##uch": 5210,
      "edward": 5211,
      "##ott": 5212,
      "##ube": 5213,
      "doga": 5214,
      "##ovision": 5215,
      "gecis": 5216,
      "acısından": 5217,
      "##ifa": 5218,
      "iktis": 5219,
      "secimleri": 5220,
      "1937": 5221,
      "insanların": 5222,
      "##ugh": 5223,
      "1918": 5224,
      "kaynagı": 5225,
      "futbolcular": 5226,
      "##landalı": 5227,
      "imza": 5228,
      "opera": 5229,
      "derece": 5230,
      "##field": 5231,
      "charles": 5232,
      "antren": 5233,
      "trabz": 5234,
      "rutb": 5235,
      "arjantin": 5236,
      ":#": 5237,
      "cd": 5238,
      "fig": 5239,
      "helen": 5240,
      "kub": 5241,
      "luk": 5242,
      "person": 5243,
      "rast": 5244,
      "sib": 5245,
      "tunc": 5246,
      "##ning": 5247,
      "##rom": 5248,
      "##lon": 5249,
      "##lasım": 5250,
      "##9e": 5251,
      "##anlık": 5252,
      "##ınar": 5253,
      "##ekim": 5254,
      "##emis": 5255,
      "##ago": 5256,
      "anton": 5257,
      "yasa": 5258,
      "stev": 5259,
      "sırasıyla": 5260,
      "prem": 5261,
      "komedi": 5262,
      "1951": 5263,
      "sezonun": 5264,
      "yayınları": 5265,
      "##olojisi": 5266,
      "1949": 5267,
      "1936": 5268,
      "##iskop": 5269,
      "duzenlem": 5270,
      "kisiler": 5271,
      "besinci": 5272,
      "basarısız": 5273,
      "hakkı": 5274,
      "sıv": 5275,
      "ogrenciler": 5276,
      "genislet": 5277,
      "hafif": 5278,
      "olumunden": 5279,
      "gonderildi": 5280,
      "arapca": 5281,
      "cumhurbaskan": 5282,
      "basınc": 5283,
      "demokratik": 5284,
      "danimarka": 5285,
      "63": 5286,
      "ailenin": 5287,
      "disi": 5288,
      "fay": 5289,
      "ga": 5290,
      "ide": 5291,
      "jim": 5292,
      "kılı": 5293,
      "ms": 5294,
      "oc": 5295,
      "yel": 5296,
      "zih": 5297,
      "##kes": 5298,
      "##sehir": 5299,
      "##pt": 5300,
      "##cil": 5301,
      "##culuk": 5302,
      "##bin": 5303,
      "##22": 5304,
      "##uss": 5305,
      "##usunu": 5306,
      "ister": 5307,
      "yaprak": 5308,
      "##tans": 5309,
      "oyunun": 5310,
      "konfer": 5311,
      "##iver": 5312,
      "bellek": 5313,
      "katolik": 5314,
      "takımında": 5315,
      "serisi": 5316,
      "hakları": 5317,
      "1941": 5318,
      "1938": 5319,
      "albumleri": 5320,
      "teknoloji": 5321,
      "koleksiyon": 5322,
      "konseyi": 5323,
      "programı": 5324,
      "komutanı": 5325,
      "sınıflandır": 5326,
      "otomobil": 5327,
      "kokenli": 5328,
      "malzem": 5329,
      "muhafız": 5330,
      "milliyet": 5331,
      "kagıt": 5332,
      "fas": 5333,
      "kaya": 5334,
      "nur": 5335,
      "vik": 5336,
      "##rid": 5337,
      "##misti": 5338,
      "##ala": 5339,
      "##ekler": 5340,
      "##ato": 5341,
      "ismail": 5342,
      "##uth": 5343,
      "oyk": 5344,
      "edin": 5345,
      "kullanılarak": 5346,
      "santr": 5347,
      "calısması": 5348,
      "##esto": 5349,
      "maria": 5350,
      "takımına": 5351,
      "harf": 5352,
      "ucus": 5353,
      "ucret": 5354,
      "kayded": 5355,
      "karsısında": 5356,
      "sert": 5357,
      "##elidir": 5358,
      "koyun": 5359,
      "##tikten": 5360,
      "sonradan": 5361,
      "martin": 5362,
      "buny": 5363,
      "bundan": 5364,
      "finalde": 5365,
      "konser": 5366,
      "toren": 5367,
      "gorulur": 5368,
      "efsan": 5369,
      "muduru": 5370,
      "doktora": 5371,
      "##board": 5372,
      "eurovision": 5373,
      "nasıl": 5374,
      "klip": 5375,
      "anayas": 5376,
      "99": 5377,
      "die": 5378,
      "eleme": 5379,
      "fl": 5380,
      "fiyat": 5381,
      "jen": 5382,
      "raki": 5383,
      "ss": 5384,
      "##ux": 5385,
      "##rin": 5386,
      "##liler": 5387,
      "##ıb": 5388,
      "##wa": 5389,
      "##vat": 5390,
      "##37": 5391,
      "##ete": 5392,
      "##lerce": 5393,
      "alma": 5394,
      "##istler": 5395,
      "##ecektir": 5396,
      "icine": 5397,
      "kurumu": 5398,
      "##row": 5399,
      "verilmistir": 5400,
      "konuk": 5401,
      "##ersiz": 5402,
      "kaliforn": 5403,
      "kullanan": 5404,
      "ayrılır": 5405,
      "agac": 5406,
      "saglam": 5407,
      "150": 5408,
      "oynanan": 5409,
      "1935": 5410,
      "taht": 5411,
      "seyh": 5412,
      "dram": 5413,
      "color": 5414,
      "ogrenim": 5415,
      "yukseldi": 5416,
      "maglu": 5417,
      "mucadel": 5418,
      "elestirmen": 5419,
      "latin": 5420,
      "yoluyla": 5421,
      "ceph": 5422,
      "koleji": 5423,
      "george": 5424,
      "dakika": 5425,
      "dolayısıyla": 5426,
      "diplom": 5427,
      "isbn": 5428,
      "97": 5429,
      "atı": 5430,
      "dost": 5431,
      "fah": 5432,
      "hel": 5433,
      "hist": 5434,
      "hid": 5435,
      "ibr": 5436,
      "nec": 5437,
      "pir": 5438,
      "piy": 5439,
      "roy": 5440,
      "tit": 5441,
      "tez": 5442,
      "vas": 5443,
      "vit": 5444,
      "##sch": 5445,
      "##lesi": 5446,
      "##dek": 5447,
      "##orf": 5448,
      "##ory": 5449,
      "##amik": 5450,
      "##okul": 5451,
      "##ics": 5452,
      "goren": 5453,
      "##ansa": 5454,
      "problem": 5455,
      "serg": 5456,
      "bolgesel": 5457,
      "##eph": 5458,
      "azal": 5459,
      "##ligin": 5460,
      "cekildi": 5461,
      "etkilen": 5462,
      "hasan": 5463,
      "##landıgı": 5464,
      "league": 5465,
      "hanım": 5466,
      "makal": 5467,
      "hatta": 5468,
      "tablo": 5469,
      "reak": 5470,
      "hayatta": 5471,
      "baglant": 5472,
      "##diki": 5473,
      "larda": 5474,
      "irlanda": 5475,
      "belgesel": 5476,
      "record": 5477,
      "toplulugu": 5478,
      "united": 5479,
      "victor": 5480,
      "ciddi": 5481,
      "belcika": 5482,
      "ez": 5483,
      "gay": 5484,
      "hop": 5485,
      "hint": 5486,
      "muk": 5487,
      "mih": 5488,
      "pin": 5489,
      "rak": 5490,
      "vi": 5491,
      "##ular": 5492,
      "##ksiyon": 5493,
      "##ds": 5494,
      "##ho": 5495,
      "##cin": 5496,
      "##cis": 5497,
      "##bur": 5498,
      "##je": 5499,
      "##jen": 5500,
      "##ony": 5501,
      "##orm": 5502,
      "##ısal": 5503,
      "##acık": 5504,
      "baslık": 5505,
      "karl": 5506,
      "yaptır": 5507,
      "##mann": 5508,
      "esn": 5509,
      "kale": 5510,
      "##gileri": 5511,
      "frek": 5512,
      "tanr": 5513,
      "adaları": 5514,
      "ulkeler": 5515,
      "sampiyonu": 5516,
      "kendine": 5517,
      "acıklama": 5518,
      "diren": 5519,
      "sinir": 5520,
      "bitki": 5521,
      "uretilen": 5522,
      "olusturur": 5523,
      "galib": 5524,
      "music": 5525,
      "kilomet": 5526,
      "thomas": 5527,
      "hayatına": 5528,
      "kast": 5529,
      "simdiki": 5530,
      "gorunt": 5531,
      "mikro": 5532,
      "katıldıgı": 5533,
      "goog": 5534,
      "peter": 5535,
      "evren": 5536,
      "angeles": 5537,
      "basketbolcu": 5538,
      "katılımcı": 5539,
      "gotur": 5540,
      "olduguna": 5541,
      "fonksiyon": 5542,
      "iskender": 5543,
      "elektronik": 5544,
      "zafer": 5545,
      "34": 5546,
      "55": 5547,
      "bib": 5548,
      "fifa": 5549,
      "giydi": 5550,
      "hers": 5551,
      "kans": 5552,
      "let": 5553,
      "reg": 5554,
      "rest": 5555,
      "rod": 5556,
      "##mat": 5557,
      "##macı": 5558,
      "##tp": 5559,
      "##gından": 5560,
      "##ydu": 5561,
      "##var": 5562,
      "##pa": 5563,
      "##ily": 5564,
      "##elle": 5565,
      "vek": 5566,
      "##lıdır": 5567,
      "parlak": 5568,
      "surgun": 5569,
      "##idge": 5570,
      "kullanır": 5571,
      "ozgun": 5572,
      "belli": 5573,
      "ataturk": 5574,
      "buyukel": 5575,
      "ikti": 5576,
      "komitesi": 5577,
      "aziz": 5578,
      "oscar": 5579,
      "almanca": 5580,
      "##ardo": 5581,
      "imparatoru": 5582,
      "kesf": 5583,
      "emir": 5584,
      "ailesinin": 5585,
      "kimya": 5586,
      "norvec": 5587,
      "dusunul": 5588,
      "ların": 5589,
      "bosna": 5590,
      "devrim": 5591,
      "politika": 5592,
      "oyunculuk": 5593,
      "endustr": 5594,
      "mekanik": 5595,
      "'''": 5596,
      "hapis": 5597,
      "paket": 5598,
      "aksine": 5599,
      "ermenistan": 5600,
      "tapın": 5601,
      "makedonya": 5602,
      "pilot": 5603,
      "ibrah": 5604,
      ".'": 5605,
      "det": 5606,
      "gas": 5607,
      "kupa": 5608,
      "log": 5609,
      "mens": 5610,
      "put": 5611,
      "pod": 5612,
      "piskop": 5613,
      "##ser": 5614,
      "##line": 5615,
      "##dıkları": 5616,
      "##haz": 5617,
      "##tim": 5618,
      "##15": 5619,
      "##erisi": 5620,
      "##lardaki": 5621,
      "##esiydi": 5622,
      "##dag": 5623,
      "##ora": 5624,
      "olas": 5625,
      "isa": 5626,
      "yapmaya": 5627,
      "unvanı": 5628,
      "##ilerinde": 5629,
      "tarihte": 5630,
      "parkı": 5631,
      "kalmıstır": 5632,
      "yarar": 5633,
      "ozerk": 5634,
      "denir": 5635,
      "katı": 5636,
      "teklif": 5637,
      "prix": 5638,
      "takımının": 5639,
      "harry": 5640,
      "bolgenin": 5641,
      "yonettigi": 5642,
      "girmistir": 5643,
      "hakan": 5644,
      "bron": 5645,
      "sanatlar": 5646,
      "madrid": 5647,
      "##ografik": 5648,
      "yarısma": 5649,
      "oyuncuları": 5650,
      "yeter": 5651,
      "1922": 5652,
      "teskil": 5653,
      "finale": 5654,
      "gencler": 5655,
      "gonul": 5656,
      "yuruy": 5657,
      "ulastı": 5658,
      "selcuk": 5659,
      "ifad": 5660,
      "operasyon": 5661,
      "adlandırılan": 5662,
      "dergisi": 5663,
      "##ship": 5664,
      "##layıcı": 5665,
      "diyar": 5666,
      "kaybetti": 5667,
      "ismini": 5668,
      "parlamentosu": 5669,
      "sanayi": 5670,
      "kaliforniya": 5671,
      "google": 5672,
      "lan": 5673,
      "neg": 5674,
      "ruz": 5675,
      "sof": 5676,
      "##wn": 5677,
      "##gb": 5678,
      "##ville": 5679,
      "##ont": 5680,
      "##altı": 5681,
      "##ester": 5682,
      "##ates": 5683,
      "##iminde": 5684,
      "##umb": 5685,
      "##istol": 5686,
      "##eyin": 5687,
      "##abilmektedir": 5688,
      "yıldır": 5689,
      "##uto": 5690,
      "etnik": 5691,
      "##oph": 5692,
      "##ekteydi": 5693,
      "ediyor": 5694,
      "eseri": 5695,
      "dong": 5696,
      "donustur": 5697,
      "gecici": 5698,
      "olmadan": 5699,
      "strat": 5700,
      "ikisi": 5701,
      "degeri": 5702,
      "yonetmeni": 5703,
      "##ander": 5704,
      "sagladı": 5705,
      "yayınladı": 5706,
      "bristol": 5707,
      "soyler": 5708,
      "soylen": 5709,
      "##uff": 5710,
      "sampiyonluk": 5711,
      "sistemleri": 5712,
      "1933": 5713,
      "cevre": 5714,
      "olusmaktadır": 5715,
      "ustun": 5716,
      "sonuclar": 5717,
      "gunumuze": 5718,
      "solo": 5719,
      "yunanca": 5720,
      "olumsuz": 5721,
      "kopr": 5722,
      "ozellikler": 5723,
      "projesi": 5724,
      "evrim": 5725,
      "surdurdu": 5726,
      "demokrat": 5727,
      "akademik": 5728,
      "iskoc": 5729,
      "joseph": 5730,
      "otomatik": 5731,
      "secimlerinde": 5732,
      "hastalık": 5733,
      "champion": 5734,
      "muhtemelen": 5735,
      "nukleer": 5736,
      "ba": 5737,
      "bed": 5738,
      "cm": 5739,
      "cop": 5740,
      "hy": 5741,
      "hoy": 5742,
      "kesif": 5743,
      "mis": 5744,
      "pier": 5745,
      "ras": 5746,
      "sum": 5747,
      "sac": 5748,
      "tu": 5749,
      "##rek": 5750,
      "##mesinden": 5751,
      "##sur": 5752,
      "##dal": 5753,
      "##batı": 5754,
      "##13": 5755,
      "##undaki": 5756,
      "##aly": 5757,
      "##ison": 5758,
      "##etz": 5759,
      "##eten": 5760,
      "dey": 5761,
      "alay": 5762,
      "aray": 5763,
      "##agon": 5764,
      "antal": 5765,
      "yılda": 5766,
      "verilir": 5767,
      "aksam": 5768,
      "##lass": 5769,
      "fre": 5770,
      "##turk": 5771,
      "ozelligi": 5772,
      "adayı": 5773,
      "1947": 5774,
      "##leyici": 5775,
      "sene": 5776,
      "albumun": 5777,
      "1928": 5778,
      "yorung": 5779,
      "dokuz": 5780,
      "degerli": 5781,
      "##iyana": 5782,
      "yayımlandı": 5783,
      "##dikleri": 5784,
      "kitapları": 5785,
      "ısık": 5786,
      "sehrinde": 5787,
      "uzaklık": 5788,
      "henuz": 5789,
      "latince": 5790,
      "baskent": 5791,
      "felsefe": 5792,
      "duyurdu": 5793,
      "tercih": 5794,
      "gurbetci": 5795,
      "..": 5796,
      "adan": 5797,
      "cla": 5798,
      "dustu": 5799,
      "gra": 5800,
      "les": 5801,
      "rop": 5802,
      "sif": 5803,
      "tun": 5804,
      "viyana": 5805,
      "##rası": 5806,
      "##ıyordu": 5807,
      "##das": 5808,
      "##his": 5809,
      "##tıktan": 5810,
      "##gusal": 5811,
      "##cası": 5812,
      "##60": 5813,
      "alıs": 5814,
      "##iginin": 5815,
      "isbir": 5816,
      "asırı": 5817,
      "kont": 5818,
      "turkmen": 5819,
      "##ege": 5820,
      "kalesi": 5821,
      "yasan": 5822,
      "mars": 5823,
      "aga": 5824,
      "kurulusu": 5825,
      "adım": 5826,
      "olusum": 5827,
      "nisanı": 5828,
      "1921": 5829,
      "musa": 5830,
      "hattı": 5831,
      "tabi": 5832,
      "patr": 5833,
      "lise": 5834,
      "reis": 5835,
      "sıf": 5836,
      "dagları": 5837,
      "dagılım": 5838,
      "baglantı": 5839,
      "toplamda": 5840,
      "lerin": 5841,
      "bozuk": 5842,
      "tipi": 5843,
      "pasap": 5844,
      "bitirdi": 5845,
      "hucre": 5846,
      "international": 5847,
      "liman": 5848,
      "etkiles": 5849,
      "labor": 5850,
      "baslıca": 5851,
      ";\"": 5852,
      "aug": 5853,
      "fm": 5854,
      "fol": 5855,
      "golu": 5856,
      "jour": 5857,
      "sektor": 5858,
      "town": 5859,
      "vah": 5860,
      "wash": 5861,
      "zinc": 5862,
      "##ks": 5863,
      "##raz": 5864,
      "##mesinin": 5865,
      "##tarı": 5866,
      "##yc": 5867,
      "##vo": 5868,
      "##95": 5869,
      "##82": 5870,
      "##oni": 5871,
      "##amay": 5872,
      "##usya": 5873,
      "olusu": 5874,
      "##apol": 5875,
      "aracı": 5876,
      "##ose": 5877,
      "karbon": 5878,
      "yapmaktadır": 5879,
      "etmesi": 5880,
      "kuresel": 5881,
      "yere": 5882,
      "yasar": 5883,
      "yasadıgı": 5884,
      "##lemesi": 5885,
      "183": 5886,
      "182": 5887,
      "alanda": 5888,
      "okudu": 5889,
      "korf": 5890,
      "##part": 5891,
      "bursa": 5892,
      "carol": 5893,
      "terimi": 5894,
      "eserler": 5895,
      "tespit": 5896,
      "mesaj": 5897,
      "egitimini": 5898,
      "show": 5899,
      "baskanlık": 5900,
      "odulunu": 5901,
      "coun": 5902,
      "karakteri": 5903,
      "mekte": 5904,
      "operator": 5905,
      "efendi": 5906,
      "yatır": 5907,
      "cozum": 5908,
      "zarar": 5909,
      "civarında": 5910,
      "mulk": 5911,
      "kanıt": 5912,
      "meksika": 5913,
      "pasaport": 5914,
      "dij": 5915,
      "ivan": 5916,
      "koz": 5917,
      "kolu": 5918,
      "masa": 5919,
      "pow": 5920,
      "post": 5921,
      "tir": 5922,
      "##nu": 5923,
      "##eus": 5924,
      "##rop": 5925,
      "##sat": 5926,
      "##ls": 5927,
      "##vik": 5928,
      "##11": 5929,
      "##akya": 5930,
      "##atuvarı": 5931,
      "##ets": 5932,
      "##ulasyon": 5933,
      "isten": 5934,
      "arz": 5935,
      "arada": 5936,
      "inf": 5937,
      "ince": 5938,
      "##ican": 5939,
      "##avy": 5940,
      "gelmistir": 5941,
      "##ibe": 5942,
      "yasanan": 5943,
      "gram": 5944,
      "katılan": 5945,
      "takv": 5946,
      "mary": 5947,
      "yakal": 5948,
      "yuzunden": 5949,
      "altyap": 5950,
      "secilen": 5951,
      "kapı": 5952,
      "kapas": 5953,
      "universite": 5954,
      "muhal": 5955,
      "sahipti": 5956,
      "ulkeye": 5957,
      "acıklam": 5958,
      "hasta": 5959,
      "havalim": 5960,
      "yetkil": 5961,
      "bunlardan": 5962,
      "hatt": 5963,
      "bina": 5964,
      "1910": 5965,
      "oduller": 5966,
      "##lines": 5967,
      "hızla": 5968,
      "gazetec": 5969,
      "proje": 5970,
      "kafk": 5971,
      "cemiyeti": 5972,
      "domuz": 5973,
      "aralarında": 5974,
      "sıcaklık": 5975,
      "antrop": 5976,
      "giderek": 5977,
      "fabrik": 5978,
      "emekli": 5979,
      "apple": 5980,
      "organizasyon": 5981,
      "etrafında": 5982,
      "komunist": 5983,
      "\"|": 5984,
      "05": 5985,
      "39": 5986,
      "cet": 5987,
      "ke": 5988,
      "king": 5989,
      "lay": 5990,
      "tıb": 5991,
      "vel": 5992,
      "##ding": 5993,
      "##ien": 5994,
      "##aklı": 5995,
      "##isah": 5996,
      "##org": 5997,
      "##ett": 5998,
      "##edilen": 5999,
      "anı": 6000,
      "##abı": 6001,
      "##lie": 6002,
      "ilinin": 6003,
      "kart": 6004,
      "##eva": 6005,
      "ortadan": 6006,
      "##lugunda": 6007,
      "kurucusu": 6008,
      "uzan": 6009,
      "ass": 6010,
      "sancak": 6011,
      "##och": 6012,
      "temiz": 6013,
      "produk": 6014,
      "karsılı": 6015,
      "evlen": 6016,
      "secilmistir": 6017,
      "albert": 6018,
      "##leyic": 6019,
      "yuksekokulu": 6020,
      "=\"#": 6021,
      "duzenli": 6022,
      "sinan": 6023,
      "ustlendi": 6024,
      "halkın": 6025,
      "cıkardı": 6026,
      "dagıl": 6027,
      "cagr": 6028,
      "edebiyatı": 6029,
      "edilmesi": 6030,
      "akademis": 6031,
      "##bakır": 6032,
      "yonetmenligini": 6033,
      "nesil": 6034,
      "inanc": 6035,
      "gezegen": 6036,
      "tepk": 6037,
      "airlines": 6038,
      "jose": 6039,
      "toplantı": 6040,
      "yout": 6041,
      "padisah": 6042,
      "billboard": 6043,
      "nadir": 6044,
      "antrenor": 6045,
      "trabzon": 6046,
      "ibrahim": 6047,
      "diyarbakır": 6048,
      "washington": 6049,
      ");": 6050,
      "cav": 6051,
      "cre": 6052,
      "irak": 6053,
      "jer": 6054,
      "nih": 6055,
      "penc": 6056,
      "rok": 6057,
      "ssc": 6058,
      "ty": 6059,
      "yansı": 6060,
      "zam": 6061,
      "##nit": 6062,
      "##ms": 6063,
      "##mad": 6064,
      "##mac": 6065,
      "##liy": 6066,
      "##latı": 6067,
      "##dit": 6068,
      "##darı": 6069,
      "##tıkları": 6070,
      "##ortaj": 6071,
      "biraz": 6072,
      "biriydi": 6073,
      "##emez": 6074,
      "##igh": 6075,
      "##ece": 6076,
      "##ogol": 6077,
      "##ilme": 6078,
      "etap": 6079,
      "asist": 6080,
      "buldu": 6081,
      "gelmektedir": 6082,
      "yazılı": 6083,
      "##ayıf": 6084,
      "uyeligi": 6085,
      "buyum": 6086,
      "eline": 6087,
      "pres": 6088,
      "yaklasım": 6089,
      "##liginin": 6090,
      "gostermektedir": 6091,
      "dizileri": 6092,
      "lige": 6093,
      "1932": 6094,
      "senary": 6095,
      "179": 6096,
      "terfi": 6097,
      "makam": 6098,
      "cinsel": 6099,
      "tesis": 6100,
      "hatır": 6101,
      "cizg": 6102,
      "iliskiler": 6103,
      "olduktan": 6104,
      "edilebilir": 6105,
      "ugras": 6106,
      "giden": 6107,
      "muhendislik": 6108,
      "ırkları": 6109,
      "olmadıgını": 6110,
      "yanlıs": 6111,
      "##peste": 6112,
      "richard": 6113,
      "momentum": 6114,
      "ertesi": 6115,
      "budapeste": 6116,
      "piyade": 6117,
      "piskopos": 6118,
      "youtube": 6119,
      "48": 6120,
      "buk": 6121,
      "big": 6122,
      "bası": 6123,
      "bez": 6124,
      "blu": 6125,
      "cey": 6126,
      "kıl": 6127,
      "mekt": 6128,
      "meg": 6129,
      "mov": 6130,
      "ram": 6131,
      "rog": 6132,
      "sik": 6133,
      "sitesi": 6134,
      "tup": 6135,
      "ut": 6136,
      "zel": 6137,
      "zayıf": 6138,
      "##ole": 6139,
      "##liye": 6140,
      "##leks": 6141,
      "##vey": 6142,
      "##cusu": 6143,
      "##ban": 6144,
      "veter": 6145,
      "##ekleri": 6146,
      "##ulması": 6147,
      "##lanmaktadır": 6148,
      "anıt": 6149,
      "##omen": 6150,
      "yapar": 6151,
      "##uce": 6152,
      "gorur": 6153,
      "astr": 6154,
      "bulunu": 6155,
      "suresi": 6156,
      "##ovic": 6157,
      "aktiv": 6158,
      "tex": 6159,
      "denet": 6160,
      "eris": 6161,
      "olmadıgı": 6162,
      "atlan": 6163,
      "baskı": 6164,
      "zamanla": 6165,
      "giren": 6166,
      "kaptan": 6167,
      "kanalı": 6168,
      "azalt": 6169,
      "sarkının": 6170,
      "##liga": 6171,
      "gosterildi": 6172,
      "metraj": 6173,
      "senesinde": 6174,
      "mali": 6175,
      "kutle": 6176,
      "uygulaması": 6177,
      "##iana": 6178,
      "konserv": 6179,
      "gerekli": 6180,
      "sirketin": 6181,
      "olaylar": 6182,
      "##abilecegi": 6183,
      "noktası": 6184,
      "mutte": 6185,
      "##rıca": 6186,
      "mudurlugu": 6187,
      "rahip": 6188,
      "finans": 6189,
      "protesto": 6190,
      "oturu": 6191,
      "kolej": 6192,
      "oldugundan": 6193,
      "bicimde": 6194,
      "soguk": 6195,
      "sogut": 6196,
      "dakik": 6197,
      "docent": 6198,
      "sebebiyle": 6199,
      "louis": 6200,
      "erzurum": 6201,
      "istifa": 6202,
      "roportaj": 6203,
      "06": 6204,
      "cro": 6205,
      "hu": 6206,
      "hos": 6207,
      "hab": 6208,
      "out": 6209,
      "plak": 6210,
      "ru": 6211,
      "stad": 6212,
      "vamp": 6213,
      "vucu": 6214,
      "yası": 6215,
      "##ns": 6216,
      "##ness": 6217,
      "##ren": 6218,
      "##mos": 6219,
      "##tv": 6220,
      "##idir": 6221,
      "##wood": 6222,
      "##bank": 6223,
      "##ıntı": 6224,
      "##eton": 6225,
      "##ayrıca": 6226,
      "##adi": 6227,
      "algor": 6228,
      "##oslav": 6229,
      "yılındaki": 6230,
      "sonlarında": 6231,
      "##tepe": 6232,
      "ast": 6233,
      "##ıza": 6234,
      "tarihsel": 6235,
      "##ego": 6236,
      "sanc": 6237,
      "halde": 6238,
      "teker": 6239,
      "180": 6240,
      "ikili": 6241,
      "genelde": 6242,
      "##mislerdir": 6243,
      "dunyada": 6244,
      "oynayan": 6245,
      "sisteminin": 6246,
      "##lıgının": 6247,
      "##tikleri": 6248,
      "icerik": 6249,
      "##elikle": 6250,
      "galerisi": 6251,
      "teknoloj": 6252,
      "1925": 6253,
      "kuzeyinde": 6254,
      "mahall": 6255,
      "ther": 6256,
      "mevki": 6257,
      "ahmed": 6258,
      "yoksul": 6259,
      "arastırmaları": 6260,
      "kurtulus": 6261,
      "meydan": 6262,
      "tanınan": 6263,
      "kafat": 6264,
      "kayıp": 6265,
      "dersleri": 6266,
      "litvan": 6267,
      "georg": 6268,
      "##opolis": 6269,
      "pozisyon": 6270,
      "yumur": 6271,
      "basvur": 6272,
      "cografya": 6273,
      "hersek": 6274,
      "sifr": 6275,
      "muttefik": 6276,
      "52": 6277,
      "78": 6278,
      "alev": 6279,
      "class": 6280,
      "edir": 6281,
      "fars": 6282,
      "juan": 6283,
      "las": 6284,
      "nem": 6285,
      "ron": 6286,
      "saz": 6287,
      "ted": 6288,
      "vuc": 6289,
      "veli": 6290,
      "##nal": 6291,
      "##ker": 6292,
      "##eo": 6293,
      "##hel": 6294,
      "##tiler": 6295,
      "##teki": 6296,
      "##vin": 6297,
      "##culu": 6298,
      "##12": 6299,
      "##ero": 6300,
      "##irler": 6301,
      "##esh": 6302,
      "##esiz": 6303,
      "##isch": 6304,
      "davet": 6305,
      "altern": 6306,
      "artır": 6307,
      "##larıdır": 6308,
      "##omi": 6309,
      "karısı": 6310,
      "##ilmesine": 6311,
      "onde": 6312,
      "orhan": 6313,
      "##ozof": 6314,
      "##elerle": 6315,
      "##ovan": 6316,
      "yazılan": 6317,
      "from": 6318,
      "tane": 6319,
      "elinde": 6320,
      "calısır": 6321,
      "sermay": 6322,
      "macına": 6323,
      "##rix": 6324,
      "sport": 6325,
      "sayf": 6326,
      "120": 6327,
      "iyil": 6328,
      "kendilerini": 6329,
      "sarkıyı": 6330,
      "hangi": 6331,
      "maliye": 6332,
      "sunucu": 6333,
      "yasamıs": 6334,
      "barındır": 6335,
      "emr": 6336,
      "##oft": 6337,
      "##landiya": 6338,
      "ilgilen": 6339,
      "parcacık": 6340,
      "yıldızı": 6341,
      "gelismis": 6342,
      "morris": 6343,
      "gazete": 6344,
      "nokt": 6345,
      "gerceklestirilen": 6346,
      "tipik": 6347,
      "performansı": 6348,
      "(),": 6349,
      "##amaktadır": 6350,
      "hikaye": 6351,
      "hanedan": 6352,
      "tartıs": 6353,
      "kaybeden": 6354,
      "senaryo": 6355,
      "yarımad": 6356,
      "kutuphan": 6357,
      "hırvat": 6358,
      "mavi": 6359,
      "michel": 6360,
      "denklem": 6361,
      "bronz": 6362,
      "august": 6363,
      "03": 6364,
      "77": 6365,
      "bre": 6366,
      "cak": 6367,
      "clu": 6368,
      "cov": 6369,
      "eli": 6370,
      "egil": 6371,
      "fac": 6372,
      "gh": 6373,
      "hot": 6374,
      "hekim": 6375,
      "lag": 6376,
      "nat": 6377,
      "ox": 6378,
      "rub": 6379,
      "sw": 6380,
      "sci": 6381,
      "west": 6382,
      "yir": 6383,
      "zir": 6384,
      "zek": 6385,
      "##rip": 6386,
      "##ww": 6387,
      "##33": 6388,
      "##40": 6389,
      "isleri": 6390,
      "##agında": 6391,
      "anim": 6392,
      "onunde": 6393,
      "turb": 6394,
      "turet": 6395,
      "etme": 6396,
      "asir": 6397,
      "##lenmektedir": 6398,
      "geldigi": 6399,
      "yasası": 6400,
      "akc": 6401,
      "akıl": 6402,
      "kenti": 6403,
      "eksik": 6404,
      "kayseri": 6405,
      "zamanlar": 6406,
      "tram": 6407,
      "gorevlendir": 6408,
      "muze": 6409,
      "abhaz": 6410,
      "girisim": 6411,
      "sezonda": 6412,
      "kaps": 6413,
      "kork": 6414,
      "eyaleti": 6415,
      "yola": 6416,
      "yolcu": 6417,
      "tumen": 6418,
      "yetis": 6419,
      "getirdi": 6420,
      "1927": 6421,
      "kesis": 6422,
      "mahm": 6423,
      "1914": 6424,
      "1915": 6425,
      "yazarları": 6426,
      "ilcesinde": 6427,
      "dusunc": 6428,
      "##sky": 6429,
      "nufusun": 6430,
      "oldukları": 6431,
      "conc": 6432,
      "kahver": 6433,
      "darb": 6434,
      "adlandırılır": 6435,
      "balkan": 6436,
      "rahat": 6437,
      "amaclı": 6438,
      "potans": 6439,
      "vilayet": 6440,
      "isletim": 6441,
      "bugunku": 6442,
      "ihrac": 6443,
      "micros": 6444,
      "milletvekil": 6445,
      "finlandiya": 6446,
      "ozgurluk": 6447,
      "kapsamında": 6448,
      "bulgaristan": 6449,
      "analiz": 6450,
      "musabaka": 6451,
      "vazgec": 6452,
      "championship": 6453,
      "yatırım": 6454,
      "karsılıgında": 6455,
      "kahveren": 6456,
      "(%": 6457,
      "09": 6458,
      "54": 6459,
      "62": 6460,
      "65": 6461,
      "bis": 6462,
      "beb": 6463,
      "beden": 6464,
      "cagı": 6465,
      "fant": 6466,
      "len": 6467,
      "land": 6468,
      "life": 6469,
      "mogol": 6470,
      "nic": 6471,
      "napol": 6472,
      "rez": 6473,
      "seg": 6474,
      "toy": 6475,
      "##udur": 6476,
      "##ras": 6477,
      "##madıgı": 6478,
      "##mustu": 6479,
      "##sas": 6480,
      "##gah": 6481,
      "##zade": 6482,
      "##areti": 6483,
      "##ınma": 6484,
      "##ilecek": 6485,
      "##alin": 6486,
      "##amayan": 6487,
      "##ikal": 6488,
      "##itter": 6489,
      "isık": 6490,
      "araz": 6491,
      "anlay": 6492,
      "intel": 6493,
      "ila": 6494,
      "karmas": 6495,
      "##ilmeye": 6496,
      "##ezya": 6497,
      "##lamıs": 6498,
      "asık": 6499,
      "aslan": 6500,
      "##eleriyle": 6501,
      "##ebilen": 6502,
      "yasındaki": 6503,
      "ath": 6504,
      "buyuksehir": 6505,
      "##ıldıgında": 6506,
      "american": 6507,
      "romanı": 6508,
      "ortasında": 6509,
      "##leyerek": 6510,
      "oynamıstır": 6511,
      "soylu": 6512,
      "merkezli": 6513,
      "dizinin": 6514,
      "ligde": 6515,
      "canak": 6516,
      "istasyon": 6517,
      "gruba": 6518,
      "1917": 6519,
      "yazarlar": 6520,
      "futbolcudur": 6521,
      "mont": 6522,
      "kokeni": 6523,
      "norman": 6524,
      "filip": 6525,
      "filozof": 6526,
      "gerekir": 6527,
      "ilcesi": 6528,
      "karakterler": 6529,
      "bıraktı": 6530,
      "bayrak": 6531,
      "toplumsal": 6532,
      "federal": 6533,
      "henry": 6534,
      "sokak": 6535,
      "mahkemesi": 6536,
      "##layıp": 6537,
      "acıdan": 6538,
      "parlamento": 6539,
      "sekreteri": 6540,
      "aleksand": 6541,
      "tedavi": 6542,
      "gerektigini": 6543,
      "zırhlı": 6544,
      "sıvı": 6545,
      "bunyesinde": 6546,
      "maglup": 6547,
      "records": 6548,
      "galibiyet": 6549,
      "restor": 6550,
      "olasılık": 6551,
      "veteriner": 6552,
      "algorit": 6553,
      "vucut": 6554,
      "alternatif": 6555,
      "02": 6556,
      "49": 6557,
      "bbc": 6558,
      "cema": 6559,
      "gab": 6560,
      "huz": 6561,
      "hans": 6562,
      "ky": 6563,
      "kuy": 6564,
      "klav": 6565,
      "lad": 6566,
      "lgb": 6567,
      "maz": 6568,
      "nob": 6569,
      "night": 6570,
      "pub": 6571,
      "saman": 6572,
      "tec": 6573,
      "vb": 6574,
      "yam": 6575,
      "##net": 6576,
      "##ail": 6577,
      "##fat": 6578,
      "##medi": 6579,
      "##sis": 6580,
      "##well": 6581,
      "##cık": 6582,
      "##bert": 6583,
      "##18": 6584,
      "##ınt": 6585,
      "##ılmasını": 6586,
      "##abilmek": 6587,
      "##ilmesini": 6588,
      "turleri": 6589,
      "ayı": 6590,
      "etki": 6591,
      "eng": 6592,
      "icindeki": 6593,
      "und": 6594,
      "uzanan": 6595,
      "gelecek": 6596,
      "vermektedir": 6597,
      "tarihinin": 6598,
      "kullandı": 6599,
      "kullandıgı": 6600,
      "gran": 6601,
      "bagl": 6602,
      "mario": 6603,
      "imp": 6604,
      "yakıt": 6605,
      "degir": 6606,
      "herkes": 6607,
      "varsay": 6608,
      "gorevine": 6609,
      "baku": 6610,
      "ege": 6611,
      "girl": 6612,
      "okun": 6613,
      "yandan": 6614,
      "sahipleri": 6615,
      "soyut": 6616,
      "carlos": 6617,
      "##ografisi": 6618,
      "sinyal": 6619,
      "halka": 6620,
      "sarayı": 6621,
      "dile": 6622,
      "binası": 6623,
      "basardı": 6624,
      "denizi": 6625,
      "kimlik": 6626,
      "gereken": 6627,
      "magaz": 6628,
      "komutasındaki": 6629,
      "anlasma": 6630,
      "hazırlık": 6631,
      "mimari": 6632,
      "bagımsızlık": 6633,
      "dolar": 6634,
      "rady": 6635,
      "dayanan": 6636,
      "sky": 6637,
      "gerceklesen": 6638,
      "besteci": 6639,
      "nitelik": 6640,
      "huseyin": 6641,
      "hastanesi": 6642,
      "ettiler": 6643,
      "tabanlı": 6644,
      "cumhurbaskanlıgı": 6645,
      "ruzgar": 6646,
      "ec": 6647,
      "fal": 6648,
      "gl": 6649,
      "hum": 6650,
      "ig": 6651,
      "iph": 6652,
      "laz": 6653,
      "liv": 6654,
      "mobil": 6655,
      "nog": 6656,
      "pus": 6657,
      "riv": 6658,
      "soh": 6659,
      "tus": 6660,
      "toh": 6661,
      "way": 6662,
      "##oid": 6663,
      "##mm": 6664,
      "##mund": 6665,
      "##sion": 6666,
      "##vir": 6667,
      "##bay": 6668,
      "##esco": 6669,
      "##eleme": 6670,
      "##ork": 6671,
      "##ety": 6672,
      "##etti": 6673,
      "##ayla": 6674,
      "##amer": 6675,
      "birisi": 6676,
      "##emedi": 6677,
      "alacak": 6678,
      "##lanabilir": 6679,
      "##agının": 6680,
      "baslayarak": 6681,
      "ici": 6682,
      "icisleri": 6683,
      "karag": 6684,
      "turlu": 6685,
      "gorsel": 6686,
      "##tain": 6687,
      "kurs": 6688,
      "##ozom": 6689,
      "veriler": 6690,
      "doner": 6691,
      "adası": 6692,
      "surdu": 6693,
      "devre": 6694,
      "aktor": 6695,
      "yonel": 6696,
      "muda": 6697,
      "kaymak": 6698,
      "zamanlarda": 6699,
      "bolgeye": 6700,
      "bolgesinin": 6701,
      "bolgedeki": 6702,
      "eglen": 6703,
      "##andy": 6704,
      "kapalı": 6705,
      "cekti": 6706,
      "izlanda": 6707,
      "cevap": 6708,
      "yarısında": 6709,
      "##luler": 6710,
      "karsıy": 6711,
      "tamamlayan": 6712,
      "yetk": 6713,
      "modeli": 6714,
      "calısmalarına": 6715,
      "##dukten": 6716,
      "paterson": 6717,
      "baskanlıgını": 6718,
      "uygulam": 6719,
      "hareketli": 6720,
      "yakınlarında": 6721,
      "koca": 6722,
      "kamera": 6723,
      "compan": 6724,
      "selim": 6725,
      "temsilcisi": 6726,
      "kullanılabilir": 6727,
      "endeks": 6728,
      "milletler": 6729,
      "ittif": 6730,
      "murat": 6731,
      "karsılastır": 6732,
      "tatar": 6733,
      "basbakanı": 6734,
      "reddet": 6735,
      "hitler": 6736,
      "buzul": 6737,
      "bilesen": 6738,
      "senarist": 6739,
      "orkestrası": 6740,
      "philip": 6741,
      "cilt": 6742,
      "piyano": 6743,
      "premier": 6744,
      "royal": 6745,
      "mensup": 6746,
      "dijital": 6747,
      "kahverengi": 6748,
      "38": 6749,
      "bom": 6750,
      "berk": 6751,
      "him": 6752,
      "jun": 6753,
      "just": 6754,
      "lok": 6755,
      "mid": 6756,
      "pi": 6757,
      "sent": 6758,
      "tot": 6759,
      "yug": 6760,
      "##non": 6761,
      "##tab": 6762,
      "##giz": 6763,
      "##giyle": 6764,
      "##ciligi": 6765,
      "##bs": 6766,
      "##90": 6767,
      "##66": 6768,
      "##ан": 6769,
      "##unt": 6770,
      "##onun": 6771,
      "##esir": 6772,
      "##day": 6773,
      "##ors": 6774,
      "olenler": 6775,
      "##iti": 6776,
      "alp": 6777,
      "##yalar": 6778,
      "bastır": 6779,
      "indi": 6780,
      "##lic": 6781,
      "onder": 6782,
      "ongor": 6783,
      "##avar": 6784,
      "##avuz": 6785,
      "turizm": 6786,
      "##mıslardır": 6787,
      "unsur": 6788,
      "kurgusal": 6789,
      "##tegr": 6790,
      "##lenerek": 6791,
      "tarihci": 6792,
      "konya": 6793,
      "adalet": 6794,
      "kalkan": 6795,
      "gunde": 6796,
      "ozgu": 6797,
      "toplu": 6798,
      "kenan": 6799,
      "acılan": 6800,
      "baskın": 6801,
      "iklim": 6802,
      "yakalan": 6803,
      "evli": 6804,
      "altındaki": 6805,
      "dergi": 6806,
      "bakıs": 6807,
      "##obi": 6808,
      "girit": 6809,
      "sayım": 6810,
      "sahipligi": 6811,
      "dizisinde": 6812,
      "beyin": 6813,
      "basladıgı": 6814,
      "dısarı": 6815,
      "isteyen": 6816,
      "sunlardır": 6817,
      "colle": 6818,
      "ogrenci": 6819,
      "cocukları": 6820,
      "gecirdigi": 6821,
      "durumunda": 6822,
      "bilimleri": 6823,
      "kisiden": 6824,
      "semt": 6825,
      "gorulen": 6826,
      "##mamıstır": 6827,
      "ekibi": 6828,
      "##ladıktan": 6829,
      "gerceklesti": 6830,
      "brown": 6831,
      "teorisi": 6832,
      "smith": 6833,
      "numaraya": 6834,
      "##sche": 6835,
      "tehdit": 6836,
      "katkıda": 6837,
      "ebu": 6838,
      "antlasması": 6839,
      "frekans": 6840,
      "layık": 6841,
      "tıbbi": 6842,
      "microsoft": 6843,
      "degirmen": 6844,
      "ittifak": 6845,
      "44": 6846,
      "53": 6847,
      "bomb": 6848,
      "cob": 6849,
      "dim": 6850,
      "fos": 6851,
      "hacı": 6852,
      "hong": 6853,
      "lip": 6854,
      "rolu": 6855,
      "sig": 6856,
      "vize": 6857,
      "”,": 6858,
      "##ude": 6859,
      "##rum": 6860,
      "##ft": 6861,
      "##has": 6862,
      "##hal": 6863,
      "##14": 6864,
      "##//": 6865,
      "##aks": 6866,
      "##iser": 6867,
      "##ella": 6868,
      "##eligine": 6869,
      "##etler": 6870,
      "##ayeti": 6871,
      "birimler": 6872,
      "##iko": 6873,
      "##iki": 6874,
      "##iyen": 6875,
      "##ump": 6876,
      "##asıdır": 6877,
      "anlatı": 6878,
      "ing": 6879,
      "##ogu": 6880,
      "karay": 6881,
      "##ave": 6882,
      "##tep": 6883,
      "esin": 6884,
      "eslik": 6885,
      "tarafında": 6886,
      "suruldu": 6887,
      "##ebi": 6888,
      "kadros": 6889,
      "katılmıstır": 6890,
      "prusya": 6891,
      "maca": 6892,
      "komsu": 6893,
      "##lerindeki": 6894,
      "birlikleri": 6895,
      "hakem": 6896,
      "korsan": 6897,
      "yolları": 6898,
      "koyunde": 6899,
      "dizide": 6900,
      "mantık": 6901,
      "##iskin": 6902,
      "kralice": 6903,
      "makale": 6904,
      "muzikal": 6905,
      "olusturdugu": 6906,
      "bundes": 6907,
      "ogrenimini": 6908,
      "cocuklar": 6909,
      "simp": 6910,
      "simdi": 6911,
      "##cilerin": 6912,
      "##ordin": 6913,
      "onunla": 6914,
      "mutlak": 6915,
      "kısmında": 6916,
      "##ques": 6917,
      "franco": 6918,
      "refer": 6919,
      "mekaniz": 6920,
      "virus": 6921,
      "mahkum": 6922,
      "iptal": 6923,
      "nikol": 6924,
      "green": 6925,
      "evlilik": 6926,
      "sertifika": 6927,
      "iktisat": 6928,
      "dusunulmektedir": 6929,
      "havalimanı": 6930,
      "edirne": 6931,
      "karsıyaka": 6932,
      "yugoslav": 6933,
      "(,": 6934,
      "84": 6935,
      "ata": 6936,
      "dug": 6937,
      "gps": 6938,
      "hon": 6939,
      "jin": 6940,
      "juri": 6941,
      "kade": 6942,
      "nig": 6943,
      "pul": 6944,
      "ped": 6945,
      "wwe": 6946,
      "zul": 6947,
      "|}": 6948,
      "##ua": 6949,
      "##ej": 6950,
      "##ıdır": 6951,
      "##gut": 6952,
      "##17": 6953,
      "##ase": 6954,
      "##iski": 6955,
      "##isindeki": 6956,
      "##urken": 6957,
      "##uleri": 6958,
      "##amin": 6959,
      "birer": 6960,
      "1900": 6961,
      "##ukur": 6962,
      "##azz": 6963,
      "##apı": 6964,
      "istik": 6965,
      "arg": 6966,
      "ilham": 6967,
      "onlara": 6968,
      "enter": 6969,
      "yerinde": 6970,
      "##oth": 6971,
      "##otlar": 6972,
      "kong": 6973,
      "turkler": 6974,
      "paragu": 6975,
      "##egeni": 6976,
      "##lıklar": 6977,
      "##lemeye": 6978,
      "yazılmıs": 6979,
      "##ısıt": 6980,
      "prom": 6981,
      "##gunde": 6982,
      "evi": 6983,
      "trt": 6984,
      "trav": 6985,
      "##ılıp": 6986,
      "goreve": 6987,
      "secen": 6988,
      "kısalt": 6989,
      "daniel": 6990,
      "university": 6991,
      "romalı": 6992,
      "hasar": 6993,
      "bolumunu": 6994,
      "kıt": 6995,
      "sattı": 6996,
      "birlesmis": 6997,
      "1924": 6998,
      "kırk": 6999,
      "##antum": 7000,
      "##elendi": 7001,
      "iliskili": 7002,
      "kuvvetlerinin": 7003,
      "nufusunun": 7004,
      "olduruldu": 7005,
      "francis": 7006,
      "mimarlık": 7007,
      "isletme": 7008,
      "vakıf": 7009,
      "miras": 7010,
      "numaralı": 7011,
      "kalıntı": 7012,
      "hakimiyet": 7013,
      "komutanlıgı": 7014,
      "sebebi": 7015,
      "posta": 7016,
      "incelem": 7017,
      "madalyası": 7018,
      "society": 7019,
      "journal": 7020,
      "yarımadası": 7021,
      "tramv": 7022,
      "bundesliga": 7023,
      "58": 7024,
      "</": 7025,
      "bec": 7026,
      "band": 7027,
      "cografi": 7028,
      "kısıt": 7029,
      "lub": 7030,
      "miss": 7031,
      "nij": 7032,
      "rem": 7033,
      "suv": 7034,
      "##uda": 7035,
      "##ky": 7036,
      "##kul": 7037,
      "##mey": 7038,
      "##lil": 7039,
      "##lov": 7040,
      "##dak": 7041,
      "##dık": 7042,
      "##hol": 7043,
      "##iden": 7044,
      "##pi": 7045,
      "##iller": 7046,
      "##ilia": 7047,
      "##esk": 7048,
      "##isin": 7049,
      "##aten": 7050,
      "##ayarak": 7051,
      "##oly": 7052,
      "##olc": 7053,
      "##ado": 7054,
      "alg": 7055,
      "alab": 7056,
      "almaya": 7057,
      "##eddin": 7058,
      "enf": 7059,
      "##ters": 7060,
      "##rov": 7061,
      "aster": 7062,
      "vermek": 7063,
      "tarihinden": 7064,
      "konumu": 7065,
      "##heim": 7066,
      "paral": 7067,
      "sureci": 7068,
      "kalır": 7069,
      "yazmıstır": 7070,
      "ern": 7071,
      "##000": 7072,
      "avuk": 7073,
      "harit": 7074,
      "karsın": 7075,
      "gorevinden": 7076,
      "gorevlisi": 7077,
      "yonetti": 7078,
      "komit": 7079,
      "chic": 7080,
      "kapan": 7081,
      "##ento": 7082,
      "kazandıgı": 7083,
      "dusur": 7084,
      "salon": 7085,
      "arasına": 7086,
      "sozcuk": 7087,
      "sistemini": 7088,
      "havay": 7089,
      "2023": 7090,
      "savasın": 7091,
      "gucleri": 7092,
      "bern": 7093,
      "kıyas": 7094,
      "1929": 7095,
      "sart": 7096,
      "emin": 7097,
      "ortalarında": 7098,
      "tesvik": 7099,
      "tabak": 7100,
      "olmakla": 7101,
      "reich": 7102,
      "kırgız": 7103,
      "degisken": 7104,
      "alınmıstır": 7105,
      "##ations": 7106,
      "isimleri": 7107,
      "katılımı": 7108,
      "yukselt": 7109,
      "sınırlı": 7110,
      "benzeri": 7111,
      "gelisim": 7112,
      "arastırmalar": 7113,
      "sakat": 7114,
      "devrimi": 7115,
      "uyesidir": 7116,
      "biyom": 7117,
      "uste": 7118,
      "dayanmaktadır": 7119,
      "hamil": 7120,
      "kacır": 7121,
      "hikmet": 7122,
      "beklen": 7123,
      "talep": 7124,
      "birbirine": 7125,
      "##memektedir": 7126,
      "reklam": 7127,
      "dogrul": 7128,
      "politikacı": 7129,
      "bogaz": 7130,
      "sembolu": 7131,
      "steph": 7132,
      "donanması": 7133,
      "fox": 7134,
      "arnavutluk": 7135,
      "kuantum": 7136,
      "okyanus": 7137,
      "grafik": 7138,
      "pierre": 7139,
      "oxford": 7140,
      "karmasık": 7141,
      "nogay": 7142,
      "paraguay": 7143,
      "46": 7144,
      "85": 7145,
      "93": 7146,
      "92": 7147,
      "bayan": 7148,
      "cı": 7149,
      "das": 7150,
      "dark": 7151,
      "down": 7152,
      "ein": 7153,
      "ith": 7154,
      "idam": 7155,
      "kip": 7156,
      "kud": 7157,
      "nev": 7158,
      "national": 7159,
      "ogul": 7160,
      "pale": 7161,
      "rit": 7162,
      "##rus": 7163,
      "##oi": 7164,
      "##ml": 7165,
      "##hat": 7166,
      "##tika": 7167,
      "##gs": 7168,
      "##gının": 7169,
      "##cy": 7170,
      "##cer": 7171,
      "##ceye": 7172,
      "##ов": 7173,
      "##akar": 7174,
      "##onik": 7175,
      "##atuvar": 7176,
      "##ule": 7177,
      "olumlu": 7178,
      "##adıkları": 7179,
      "artan": 7180,
      "##osunu": 7181,
      "anth": 7182,
      "##abet": 7183,
      "##omp": 7184,
      "onların": 7185,
      "vererek": 7186,
      "surede": 7187,
      "kalem": 7188,
      "##lemektedir": 7189,
      "bulundur": 7190,
      "gecmektedir": 7191,
      "olmaya": 7192,
      "acıldı": 7193,
      "studi": 7194,
      "marm": 7195,
      "milano": 7196,
      "ikiye": 7197,
      "##guna": 7198,
      "yuzolc": 7199,
      "##ılıyor": 7200,
      "gorevinde": 7201,
      "gorevden": 7202,
      "alanları": 7203,
      "boyu": 7204,
      "brun": 7205,
      "merkezinde": 7206,
      "burs": 7207,
      "manuel": 7208,
      "1934": 7209,
      "havacılık": 7210,
      "subay": 7211,
      "law": 7212,
      "uretic": 7213,
      "sorum": 7214,
      "olusturulan": 7215,
      "cince": 7216,
      "gold": 7217,
      "gruplar": 7218,
      "otob": 7219,
      "degisim": 7220,
      "siyasal": 7221,
      "anlamda": 7222,
      "koordin": 7223,
      "cagdas": 7224,
      "ilcenin": 7225,
      "olumune": 7226,
      "hizmetleri": 7227,
      "torunu": 7228,
      "holding": 7229,
      "hein": 7230,
      "belirtti": 7231,
      "kitabın": 7232,
      "volvo": 7233,
      "1907": 7234,
      "sabah": 7235,
      "seferi": 7236,
      "tanınır": 7237,
      "basarıları": 7238,
      "reform": 7239,
      "italyanca": 7240,
      "vilayeti": 7241,
      "fikri": 7242,
      "##dogan": 7243,
      "dogrult": 7244,
      "domin": 7245,
      "##ouse": 7246,
      "incelen": 7247,
      "slov": 7248,
      "editor": 7249,
      "karısık": 7250,
      "sekreter": 7251,
      "##edrich": 7252,
      "##osaurus": 7253,
      "konstantinopolis": 7254,
      "cicek": 7255,
      "danısman": 7256,
      "wrest": 7257,
      "edip": 7258,
      "figur": 7259,
      "fahri": 7260,
      "kilometre": 7261,
      "antalya": 7262,
      "sıfır": 7263,
      "zamanı": 7264,
      "zelanda": 7265,
      "zirv": 7266,
      "company": 7267,
      "\".": 7268,
      "(;": 7269,
      "43": 7270,
      "://": 7271,
      "bus": 7272,
      "camp": 7273,
      "gı": 7274,
      "gide": 7275,
      "io": 7276,
      "mand": 7277,
      "nez": 7278,
      "pis": 7279,
      "slam": 7280,
      "suyu": 7281,
      "toz": 7282,
      "uf": 7283,
      "vs": 7284,
      "yla": 7285,
      "##ei": 7286,
      "##eing": 7287,
      "##ral": 7288,
      "##rich": 7289,
      "##lilik": 7290,
      "##dun": 7291,
      "##gesi": 7292,
      "##yle": 7293,
      "##vd": 7294,
      "##port": 7295,
      "##ben": 7296,
      "##bah": 7297,
      "##ane": 7298,
      "##andan": 7299,
      "##ente": 7300,
      "##irli": 7301,
      "##etleri": 7302,
      "birik": 7303,
      "##ikalı": 7304,
      "##olon": 7305,
      "##olitik": 7306,
      "##imiz": 7307,
      "##ito": 7308,
      "arda": 7309,
      "##lılar": 7310,
      "inde": 7311,
      "##aff": 7312,
      "##ute": 7313,
      "karaca": 7314,
      "karanlık": 7315,
      "##eria": 7316,
      "etn": 7317,
      "##lamaya": 7318,
      "##lenebilir": 7319,
      "esir": 7320,
      "tarihlerinde": 7321,
      "donen": 7322,
      "dogulu": 7323,
      "kalma": 7324,
      "bulunmaktaydı": 7325,
      "uydu": 7326,
      "halif": 7327,
      "atıs": 7328,
      "bagıs": 7329,
      "gerektir": 7330,
      "eliz": 7331,
      "uclu": 7332,
      "zamanında": 7333,
      "##uydu": 7334,
      "haydar": 7335,
      "gosterdi": 7336,
      "125": 7337,
      "belirgin": 7338,
      "177": 7339,
      "eskiden": 7340,
      "golunu": 7341,
      "paten": 7342,
      "sevgil": 7343,
      "gelistirilen": 7344,
      "yayımladı": 7345,
      "cevresinde": 7346,
      "karakterini": 7347,
      "boru": 7348,
      "kontrolu": 7349,
      "nazır": 7350,
      "klasman": 7351,
      "##memis": 7352,
      "fırlat": 7353,
      "timur": 7354,
      "notlar": 7355,
      "arkadasları": 7356,
      "jackson": 7357,
      "luis": 7358,
      "young": 7359,
      "kampan": 7360,
      "versiyonu": 7361,
      "arslan": 7362,
      "lake": 7363,
      "agırlıklı": 7364,
      "##cılıgını": 7365,
      "arkeolojik": 7366,
      "personel": 7367,
      "olusuyordu": 7368,
      "mektup": 7369,
      "potansiyel": 7370,
      "nobel": 7371,
      "kaymakam": 7372,
      "66": 7373,
      "737": 7374,
      "balt": 7375,
      "cekt": 7376,
      "deri": 7377,
      "dick": 7378,
      "fet": 7379,
      "ful": 7380,
      "femin": 7381,
      "gog": 7382,
      "how": 7383,
      "kin": 7384,
      "lop": 7385,
      "mig": 7386,
      "oh": 7387,
      "tgr": 7388,
      "win": 7389,
      "##rey": 7390,
      "##seh": 7391,
      "##low": 7392,
      "##the": 7393,
      "##yumu": 7394,
      "##cus": 7395,
      "##cinin": 7396,
      "##bus": 7397,
      "##bistan": 7398,
      "##ila": 7399,
      "##aklar": 7400,
      "##espor": 7401,
      "##ori": 7402,
      "##ulup": 7403,
      "##ılmasına": 7404,
      "##olo": 7405,
      "olagan": 7406,
      "##iyer": 7407,
      "##adet": 7408,
      "##itz": 7409,
      "ala": 7410,
      "isy": 7411,
      "##ager": 7412,
      "anti": 7413,
      "yılmaz": 7414,
      "inst": 7415,
      "karıstır": 7416,
      "##ilmez": 7417,
      "##luga": 7418,
      "goruldu": 7419,
      "##oyu": 7420,
      "##rot": 7421,
      "##ilerle": 7422,
      "gelmis": 7423,
      "tarihine": 7424,
      "##ayıcı": 7425,
      "buyudu": 7426,
      "katılır": 7427,
      "ayrım": 7428,
      "stre": 7429,
      "oyuna": 7430,
      "kaybol": 7431,
      "agab": 7432,
      "evinde": 7433,
      "seref": 7434,
      "secilmis": 7435,
      "##chen": 7436,
      "yanına": 7437,
      "gosterilmistir": 7438,
      "sozleri": 7439,
      "avrup": 7440,
      "maddi": 7441,
      "beyler": 7442,
      "makine": 7443,
      "isted": 7444,
      "anderson": 7445,
      "yasamaktadır": 7446,
      "albumunde": 7447,
      "guneydogu": 7448,
      "1926": 7449,
      "rolunu": 7450,
      "kırım": 7451,
      "sıg": 7452,
      "kulturu": 7453,
      "konusma": 7454,
      "gelistirme": 7455,
      "islemci": 7456,
      "goruntu": 7457,
      "altıncı": 7458,
      "sakin": 7459,
      "boeing": 7460,
      "kelime": 7461,
      "robot": 7462,
      "yonetiminde": 7463,
      "direktoru": 7464,
      "##lamaktadır": 7465,
      "federasyon": 7466,
      "styles": 7467,
      "liber": 7468,
      "cogunlugu": 7469,
      "white": 7470,
      "deneysel": 7471,
      "##ebilecek": 7472,
      "bankası": 7473,
      "destegi": 7474,
      "ilaclar": 7475,
      "plaz": 7476,
      "davranıs": 7477,
      "friedrich": 7478,
      "karabag": 7479,
      "kaydetti": 7480,
      "ideal": 7481,
      "kılıc": 7482,
      "konferans": 7483,
      "arayuz": 7484,
      "isbirligi": 7485,
      "iyilestir": 7486,
      "lgbt": 7487,
      "lopez": 7488,
      "tgrt": 7489,
      "67": 7490,
      "82": 7491,
      "96": 7492,
      "agı": 7493,
      "boc": 7494,
      "cis": 7495,
      "cha": 7496,
      "kw": 7497,
      "key": 7498,
      "north": 7499,
      "reb": 7500,
      "sed": 7501,
      "tb": 7502,
      "##rad": 7503,
      "##mun": 7504,
      "##sah": 7505,
      "##dorf": 7506,
      "##gat": 7507,
      "##bis": 7508,
      "##99": 7509,
      "##astik": 7510,
      "##unge": 7511,
      "##ales": 7512,
      "##ullah": 7513,
      "##amamıstır": 7514,
      "##imed": 7515,
      "##itleri": 7516,
      "alcak": 7517,
      "##istigi": 7518,
      "##lugunun": 7519,
      "aylık": 7520,
      "etik": 7521,
      "veril": 7522,
      "surumu": 7523,
      "##ebilmektedir": 7524,
      "uyan": 7525,
      "yonunde": 7526,
      "##ilendir": 7527,
      "atlas": 7528,
      "atina": 7529,
      "tanımı": 7530,
      "##uva": 7531,
      "##menin": 7532,
      "press": 7533,
      "traf": 7534,
      "yonetilen": 7535,
      "genelinde": 7536,
      "kısmen": 7537,
      "sezonunun": 7538,
      "duzelt": 7539,
      "kanunu": 7540,
      "universitesinde": 7541,
      "koruy": 7542,
      "##ligindeki": 7543,
      "tasır": 7544,
      "cekilen": 7545,
      "ulkesi": 7546,
      "160": 7547,
      "166": 7548,
      "olusmustur": 7549,
      "bolumde": 7550,
      "savasta": 7551,
      "guclendir": 7552,
      "grubunun": 7553,
      "hukumdarı": 7554,
      "seyir": 7555,
      "##ther": 7556,
      "##lins": 7557,
      "ogrencisi": 7558,
      "yenilen": 7559,
      "cengiz": 7560,
      "monte": 7561,
      "tasarımı": 7562,
      "sıklıkla": 7563,
      "kopru": 7564,
      "gorulmektedir": 7565,
      "yapımcısı": 7566,
      "good": 7567,
      "petrol": 7568,
      "toprakları": 7569,
      "1000": 7570,
      "valisi": 7571,
      "idare": 7572,
      "joe": 7573,
      "cerrah": 7574,
      "##lugune": 7575,
      "renkli": 7576,
      "avusturyalı": 7577,
      "profesoru": 7578,
      "tarzı": 7579,
      "bilesik": 7580,
      "williams": 7581,
      "tavs": 7582,
      "bakımından": 7583,
      "kazakistan": 7584,
      "yenilg": 7585,
      "miktarda": 7586,
      "cekirdek": 7587,
      "tufek": 7588,
      "http": 7589,
      "bozukluk": 7590,
      "power": 7591,
      "text": 7592,
      "tekerlek": 7593,
      "farsca": 7594,
      "klavye": 7595,
      "paralel": 7596,
      "avukat": 7597,
      "yuzolcumu": 7598,
      "wrestling": 7599,
      "/,": 7600,
      "begen": 7601,
      "celik": 7602,
      "dna": 7603,
      "high": 7604,
      "jor": 7605,
      "kh": 7606,
      "lyn": 7607,
      "mt": 7608,
      "mos": 7609,
      "run": 7610,
      "rib": 7611,
      "row": 7612,
      "sv": 7613,
      "tey": 7614,
      "yuvar": 7615,
      "zehir": 7616,
      "##uar": 7617,
      "##ault": 7618,
      "##kale": 7619,
      "##kins": 7620,
      "##film": 7621,
      "##out": 7622,
      "##lusu": 7623,
      "##tak": 7624,
      "##wick": 7625,
      "##gas": 7626,
      "##ym": 7627,
      "##vard": 7628,
      "##pen": 7629,
      "##pınar": 7630,
      "##peten": 7631,
      "##36": 7632,
      "##erken": 7633,
      "##inler": 7634,
      "##enli": 7635,
      "##ild": 7636,
      "vefat": 7637,
      "birinin": 7638,
      "##ısındaki": 7639,
      "olacaktır": 7640,
      "deb": 7641,
      "alas": 7642,
      "island": 7643,
      "bud": 7644,
      "##duc": 7645,
      "anılır": 7646,
      "baslandı": 7647,
      "induk": 7648,
      "##oman": 7649,
      "##ution": 7650,
      "onar": 7651,
      "##dırma": 7652,
      "etim": 7653,
      "kurmak": 7654,
      "kursun": 7655,
      "olanak": 7656,
      "bilgileri": 7657,
      "dogmustur": 7658,
      "dogdugu": 7659,
      "dogusunda": 7660,
      "yarısı": 7661,
      "yaslı": 7662,
      "team": 7663,
      "yazılmıstır": 7664,
      "##lasma": 7665,
      "bella": 7666,
      "katman": 7667,
      "katedr": 7668,
      "sant": 7669,
      "sanatı": 7670,
      "yonlendir": 7671,
      "topr": 7672,
      "kenar": 7673,
      "atmos": 7674,
      "bagır": 7675,
      "ayrılan": 7676,
      "sıradan": 7677,
      "sırbistan": 7678,
      "takıma": 7679,
      "takımlarından": 7680,
      "milyar": 7681,
      "ucagı": 7682,
      "macları": 7683,
      "hayal": 7684,
      "saglay": 7685,
      "kanad": 7686,
      "yayınevi": 7687,
      "155": 7688,
      "resmen": 7689,
      "oynamaya": 7690,
      "soylenir": 7691,
      "yukseklik": 7692,
      "ligin": 7693,
      "insanları": 7694,
      "##rugu": 7695,
      "farklılık": 7696,
      "albumde": 7697,
      "1923": 7698,
      "halkı": 7699,
      "sarap": 7700,
      "kesfet": 7701,
      "1916": 7702,
      "oguz": 7703,
      "afgan": 7704,
      "tanımlanır": 7705,
      "arastırmacı": 7706,
      "kasaba": 7707,
      "##alanan": 7708,
      "isimlendir": 7709,
      "anlamı": 7710,
      "camii": 7711,
      "tasarlanmıs": 7712,
      "yapıt": 7713,
      "comp": 7714,
      "duyar": 7715,
      "dalında": 7716,
      "250": 7717,
      "ederler": 7718,
      "holly": 7719,
      "hollandalı": 7720,
      "anlasması": 7721,
      "batısında": 7722,
      "sami": 7723,
      "bagımsızlıgını": 7724,
      "johnson": 7725,
      "derecede": 7726,
      "edildigi": 7727,
      "##veris": 7728,
      "pasif": 7729,
      "broad": 7730,
      "kilisenin": 7731,
      "johan": 7732,
      "disney": 7733,
      "orgutu": 7734,
      "muhendisligi": 7735,
      "kapsamlı": 7736,
      "hipot": 7737,
      "papa": 7738,
      "malzeme": 7739,
      "trablus": 7740,
      "orkestra": 7741,
      "gecmisi": 7742,
      "##uyordu": 7743,
      "kongresi": 7744,
      "formula": 7745,
      "akıskan": 7746,
      "queen": 7747,
      "antonio": 7748,
      "##ussia": 7749,
      "gonullu": 7750,
      "mektebi": 7751,
      "kafatası": 7752,
      "asiret": 7753,
      "yugoslavya": 7754,
      "lubnan": 7755,
      "))": 7756,
      "57": 7757,
      "68": 7758,
      "72": 7759,
      "95": 7760,
      "bri": 7761,
      "bang": 7762,
      "cur": 7763,
      "ceb": 7764,
      "dre": 7765,
      "hin": 7766,
      "hide": 7767,
      "kun": 7768,
      "kre": 7769,
      "kimi": 7770,
      "live": 7771,
      "mr": 7772,
      "mers": 7773,
      "mix": 7774,
      "otor": 7775,
      "py": 7776,
      "usk": 7777,
      "vaka": 7778,
      "vlad": 7779,
      "www": 7780,
      "##sir": 7781,
      "##sor": 7782,
      "##dy": 7783,
      "##wen": 7784,
      "##wat": 7785,
      "##ink": 7786,
      "##inav": 7787,
      "##ılma": 7788,
      "##usen": 7789,
      "##usune": 7790,
      "##imine": 7791,
      "##iter": 7792,
      "##emektedir": 7793,
      "arm": 7794,
      "arena": 7795,
      "##act": 7796,
      "anılan": 7797,
      "##abeth": 7798,
      "##izz": 7799,
      "ind": 7800,
      "##denin": 7801,
      "##oma": 7802,
      "sonuna": 7803,
      "##aft": 7804,
      "yapıldıgı": 7805,
      "unesco": 7806,
      "kulak": 7807,
      "kurdugu": 7808,
      "##ilerinden": 7809,
      "edmund": 7810,
      "##lenin": 7811,
      "##lenme": 7812,
      "verileri": 7813,
      "konf": 7814,
      "paramet": 7815,
      "##over": 7816,
      "amel": 7817,
      "kalab": 7818,
      "kalıcı": 7819,
      "yarg": 7820,
      "yazma": 7821,
      "denilen": 7822,
      "atom": 7823,
      "ayrılmıstır": 7824,
      "marg": 7825,
      "maruz": 7826,
      "marie": 7827,
      "avcı": 7828,
      "takımda": 7829,
      "miller": 7830,
      "harvard": 7831,
      "krip": 7832,
      "sergi": 7833,
      "gorevleri": 7834,
      "seckin": 7835,
      "girerek": 7836,
      "kurulması": 7837,
      "saglıgı": 7838,
      "yayınlanmıstır": 7839,
      "sayfa": 7840,
      "kazanarak": 7841,
      "ortod": 7842,
      "1931": 7843,
      "170": 7844,
      "sarkıları": 7845,
      "nispeten": 7846,
      "maksim": 7847,
      "malat": 7848,
      "malta": 7849,
      "harekat": 7850,
      "olusturdu": 7851,
      "galeri": 7852,
      "cinayet": 7853,
      "roluyle": 7854,
      "onceden": 7855,
      "oncesinde": 7856,
      "ornegi": 7857,
      "liste": 7858,
      "basarısı": 7859,
      "odullendir": 7860,
      "baglıdır": 7861,
      "moda": 7862,
      "##elendir": 7863,
      "durumlarda": 7864,
      "kamyon": 7865,
      "gerekc": 7866,
      "dusunce": 7867,
      "heart": 7868,
      "heavy": 7869,
      "gazeteci": 7870,
      "filmidir": 7871,
      "biyografi": 7872,
      "memur": 7873,
      "cezay": 7874,
      "degistirildi": 7875,
      "##demir": 7876,
      "giyen": 7877,
      "##ology": 7878,
      "gott": 7879,
      "##idae": 7880,
      "parcalar": 7881,
      "balıkesir": 7882,
      "metropol": 7883,
      "ilerleyen": 7884,
      "dayalı": 7885,
      "kompleks": 7886,
      "molek": 7887,
      "munih": 7888,
      "arsiv": 7889,
      "fatih": 7890,
      "sergilen": 7891,
      "fernando": 7892,
      "alexander": 7893,
      "jener": 7894,
      "rakip": 7895,
      "esnasında": 7896,
      "grammy": 7897,
      "produksiyon": 7898,
      "blue": 7899,
      "rezerv": 7900,
      "karagoz": 7901,
      "hamilton": 7902,
      "\"'": 7903,
      "79": 7904,
      "88": 7905,
      "aman": 7906,
      "bac": 7907,
      "bra": 7908,
      "cub": 7909,
      "dic": 7910,
      "ej": 7911,
      "e9e": 7912,
      "lez": 7913,
      "mob": 7914,
      "nil": 7915,
      "nag": 7916,
      "paz": 7917,
      "reh": 7918,
      "rud": 7919,
      "she": 7920,
      "ts": 7921,
      "tuc": 7922,
      "time": 7923,
      "ves": 7924,
      "your": 7925,
      "za": 7926,
      "##kt": 7927,
      "##fli": 7928,
      "##oa": 7929,
      "##oda": 7930,
      "##idi": 7931,
      "##yolu": 7932,
      "##bek": 7933,
      "##32": 7934,
      "##jor": 7935,
      "##45": 7936,
      "##arya": 7937,
      "##asan": 7938,
      "##ilip": 7939,
      "##amo": 7940,
      "isit": 7941,
      "##istin": 7942,
      "##duz": 7943,
      "##ogen": 7944,
      "##afta": 7945,
      "karac": 7946,
      "kartal": 7947,
      "aylarında": 7948,
      "unut": 7949,
      "##roid": 7950,
      "oyunda": 7951,
      "yeryuz": 7952,
      "bulur": 7953,
      "bulmak": 7954,
      "##ansız": 7955,
      "verilmis": 7956,
      "adolf": 7957,
      "kaldıgı": 7958,
      "aksiyon": 7959,
      "##lastı": 7960,
      "denetim": 7961,
      "halef": 7962,
      "attıgı": 7963,
      "bagdat": 7964,
      "gerilim": 7965,
      "calıstıgı": 7966,
      "sırt": 7967,
      "prim": 7968,
      "bakır": 7969,
      "macera": 7970,
      "koms": 7971,
      "##chi": 7972,
      "giro": 7973,
      "okuy": 7974,
      "oksi": 7975,
      "sezonunu": 7976,
      "saglan": 7977,
      "oset": 7978,
      "kazananı": 7979,
      "157": 7980,
      "tasvir": 7981,
      "cekim": 7982,
      "merkezine": 7983,
      "carl": 7984,
      "bilinmeyen": 7985,
      "faktor": 7986,
      "tamamı": 7987,
      "grupları": 7988,
      "listesine": 7989,
      "tutar": 7990,
      "1912": 7991,
      "drama": 7992,
      "hakkındaki": 7993,
      "hayata": 7994,
      "cizim": 7995,
      "cagır": 7996,
      "magar": 7997,
      "ederken": 7998,
      "cevrim": 7999,
      "gelisme": 8000,
      "kariyerini": 8001,
      "sirketler": 8002,
      "renault": 8003,
      "askerler": 8004,
      "olayları": 8005,
      "##abilecegini": 8006,
      "geomet": 8007,
      "numara": 8008,
      "corn": 8009,
      "oyunculu": 8010,
      "miny": 8011,
      "volkan": 8012,
      "direktorluk": 8013,
      "tanınmıs": 8014,
      "etmeyi": 8015,
      "saldırıya": 8016,
      "prenses": 8017,
      "##ervo": 8018,
      "kalkınma": 8019,
      "ettigini": 8020,
      "week": 8021,
      "slog": 8022,
      "syst": 8023,
      "birincil": 8024,
      "element": 8025,
      "hisse": 8026,
      "tanıstı": 8027,
      "dovus": 8028,
      "##9e9": 8029,
      "atıf": 8030,
      "selcuklu": 8031,
      "yıldırım": 8032,
      "stratej": 8033,
      "korfez": 8034,
      "kafkasya": 8035,
      "bulunuyordu": 8036,
      "litvanya": 8037,
      "laguna": 8038,
      "yirmi": 8039,
      "cemaat": 8040,
      "baglac": 8041,
      "tramvay": 8042,
      "tbmm": 8043,
      "e9e9e9": 8044,
      "51": 8045,
      "beh": 8046,
      "boh": 8047,
      "beck": 8048,
      "cn": 8049,
      "cukur": 8050,
      "lor": 8051,
      "last": 8052,
      "mans": 8053,
      "pic": 8054,
      "rey": 8055,
      "rust": 8056,
      "sic": 8057,
      "ugur": 8058,
      "zaten": 8059,
      "##niyet": 8060,
      "##keli": 8061,
      "##kervo": 8062,
      "##ruz": 8063,
      "##ool": 8064,
      "##odu": 8065,
      "##meti": 8066,
      "##mekteydi": 8067,
      "##sek": 8068,
      "##sap": 8069,
      "##tus": 8070,
      "##gy": 8071,
      "##gine": 8072,
      "##),": 8073,
      "##zy": 8074,
      "##16": 8075,
      "##enz": 8076,
      "##unk": 8077,
      "##onyalı": 8078,
      "##urge": 8079,
      "##dad": 8080,
      "##ekar": 8081,
      "##etta": 8082,
      "##ula": 8083,
      "##amonu": 8084,
      "##olas": 8085,
      "oliver": 8086,
      "##iyev": 8087,
      "##adık": 8088,
      "alet": 8089,
      "aldıktan": 8090,
      "##asız": 8091,
      "isler": 8092,
      "buff": 8093,
      "anna": 8094,
      "##ector": 8095,
      "yıldan": 8096,
      "icra": 8097,
      "ilah": 8098,
      "kare": 8099,
      "##evk": 8100,
      "onlar": 8101,
      "ondan": 8102,
      "turda": 8103,
      "turgut": 8104,
      "ayar": 8105,
      "gordugu": 8106,
      "tarihten": 8107,
      "konut": 8108,
      "donkervo": 8109,
      "genetik": 8110,
      "adının": 8111,
      "##egini": 8112,
      "ultim": 8113,
      "ambr": 8114,
      "yargı": 8115,
      "gungor": 8116,
      "yazmaya": 8117,
      "filmografi": 8118,
      "buyuy": 8119,
      "erol": 8120,
      "santa": 8121,
      "sahil": 8122,
      "halife": 8123,
      "toplama": 8124,
      "cıktıgı": 8125,
      "elli": 8126,
      "ayrılmıs": 8127,
      "takımları": 8128,
      "harita": 8129,
      "alanlarda": 8130,
      "##chester": 8131,
      "##andinav": 8132,
      "chem": 8133,
      "america": 8134,
      "danny": 8135,
      "muhab": 8136,
      "sarkısını": 8137,
      "brit": 8138,
      "kazandır": 8139,
      "##dere": 8140,
      "burun": 8141,
      "maden": 8142,
      "kendilerine": 8143,
      "acıklandı": 8144,
      "karsıtı": 8145,
      "duzenleme": 8146,
      "##imlerinin": 8147,
      "##iyorum": 8148,
      "satan": 8149,
      "guneyinde": 8150,
      "getirir": 8151,
      "calısmalarını": 8152,
      "##lamaları": 8153,
      "keskin": 8154,
      "mesl": 8155,
      "grupta": 8156,
      "dokun": 8157,
      "denize": 8158,
      "seytan": 8159,
      "yenerek": 8160,
      "simulasyon": 8161,
      "davul": 8162,
      "romanları": 8163,
      "romanya": 8164,
      "hizmeti": 8165,
      "maur": 8166,
      "kosova": 8167,
      "kentin": 8168,
      "kariyerinin": 8169,
      "miktarı": 8170,
      "kopya": 8171,
      "gazetesi": 8172,
      "nokia": 8173,
      "mecl": 8174,
      "kısmını": 8175,
      "yagmur": 8176,
      "yazıları": 8177,
      "serie": 8178,
      "fırın": 8179,
      "stand": 8180,
      "sozlesmesi": 8181,
      "##luguna": 8182,
      "gocmen": 8183,
      "arabistan": 8184,
      "mahkem": 8185,
      "sahneye": 8186,
      "toplant": 8187,
      "cıkıslı": 8188,
      "demokrasi": 8189,
      "ekiplerinden": 8190,
      "yetenek": 8191,
      "hurr": 8192,
      "muhafaz": 8193,
      "dosya": 8194,
      "hoca": 8195,
      "legion": 8196,
      "korumak": 8197,
      "acılıs": 8198,
      "benims": 8199,
      "nahcı": 8200,
      "sıralam": 8201,
      "tuketici": 8202,
      "peygam": 8203,
      "disip": 8204,
      "vektor": 8205,
      "iktidar": 8206,
      "negatif": 8207,
      "akademisyen": 8208,
      "astronom": 8209,
      "vampir": 8210,
      "mahallesi": 8211,
      "sermaye": 8212,
      "marmara": 8213,
      "cektigi": 8214,
      "isyanı": 8215,
      "##imedes": 8216,
      "alaska": 8217,
      "mersin": 8218,
      "ortodoks": 8219,
      "minyatur": 8220,
      "donkervoort": 8221,
      "peygamber": 8222,
      "07": 8223,
      "69": 8224,
      "74": 8225,
      "agız": 8226,
      "cu": 8227,
      "cir": 8228,
      "cent": 8229,
      "delik": 8230,
      "fur": 8231,
      "god": 8232,
      "hp": 8233,
      "ked": 8234,
      "kid": 8235,
      "lord": 8236,
      "lamb": 8237,
      "natur": 8238,
      "pel": 8239,
      "pot": 8240,
      "ret": 8241,
      "wit": 8242,
      "ziya": 8243,
      "ال": 8244,
      "##kırı": 8245,
      "##kapı": 8246,
      "##fe": 8247,
      "##ota": 8248,
      "##dum": 8249,
      "##down": 8250,
      "##tes": 8251,
      "##ior": 8252,
      "##ydi": 8253,
      "##ysa": 8254,
      "##vel": 8255,
      "##bil": 8256,
      "##ball": 8257,
      "##ason": 8258,
      "##alat": 8259,
      "##esa": 8260,
      "##iklet": 8261,
      "##usuna": 8262,
      "olustu": 8263,
      "olsun": 8264,
      "##iyesi": 8265,
      "##imat": 8266,
      "##imet": 8267,
      "##emmel": 8268,
      "arist": 8269,
      "arazi": 8270,
      "##osa": 8271,
      "intik": 8272,
      "##ımız": 8273,
      "##livan": 8274,
      "##oke": 8275,
      "sonsuz": 8276,
      "iliski": 8277,
      "##tions": 8278,
      "ayas": 8279,
      "kuram": 8280,
      "##teb": 8281,
      "uzat": 8282,
      "ilkokul": 8283,
      "vermis": 8284,
      "vermeye": 8285,
      "verilmektedir": 8286,
      "tarihciler": 8287,
      "konak": 8288,
      "adil": 8289,
      "amcası": 8290,
      "yaratı": 8291,
      "kullanmak": 8292,
      "yasta": 8293,
      "akars": 8294,
      "##masıdır": 8295,
      "yazında": 8296,
      "##ayıp": 8297,
      "katılmıs": 8298,
      "katliam": 8299,
      "theod": 8300,
      "sahasında": 8301,
      "hall": 8302,
      "topcu": 8303,
      "cıkmıs": 8304,
      "cıkarak": 8305,
      "calısmıstır": 8306,
      "##grul": 8307,
      "store": 8308,
      "pratik": 8309,
      "kayak": 8310,
      "agz": 8311,
      "krist": 8312,
      "kriz": 8313,
      "krom": 8314,
      "maclar": 8315,
      "##ture": 8316,
      "chp": 8317,
      "chen": 8318,
      "kısaca": 8319,
      "dance": 8320,
      "devletler": 8321,
      "digerleri": 8322,
      "154": 8323,
      "##liginden": 8324,
      "saltan": 8325,
      "formasını": 8326,
      "mete": 8327,
      "belirtir": 8328,
      "sistemine": 8329,
      "havz": 8330,
      "term": 8331,
      "laur": 8332,
      "ustunde": 8333,
      "yuzyıldan": 8334,
      "sundu": 8335,
      "148": 8336,
      "berg": 8337,
      "soru": 8338,
      "sorustur": 8339,
      "gazi": 8340,
      "koln": 8341,
      "##duktan": 8342,
      "oncelikle": 8343,
      "dilinde": 8344,
      "egitimine": 8345,
      "drag": 8346,
      "rej": 8347,
      "that": 8348,
      "yunus": 8349,
      "sıgın": 8350,
      "degerleri": 8351,
      "zorunlu": 8352,
      "hızı": 8353,
      "batıda": 8354,
      "##uanda": 8355,
      "mass": 8356,
      "ısın": 8357,
      "battle": 8358,
      "gorulmustur": 8359,
      "soul": 8360,
      "1905": 8361,
      "medres": 8362,
      "kulubun": 8363,
      "aittir": 8364,
      "yagıs": 8365,
      "ornekler": 8366,
      "menz": 8367,
      "france": 8368,
      "doktorasını": 8369,
      "murad": 8370,
      "murette": 8371,
      "ugradı": 8372,
      "tatlı": 8373,
      "mehmed": 8374,
      "smack": 8375,
      "turnuva": 8376,
      "engelli": 8377,
      "haps": 8378,
      "netfli": 8379,
      "mezarlıgı": 8380,
      "sadık": 8381,
      "zarf": 8382,
      "caddesi": 8383,
      "yedinci": 8384,
      "ajansı": 8385,
      "destegiyle": 8386,
      "guresci": 8387,
      "gurbetciler": 8388,
      "okyanusu": 8389,
      "manastırı": 8390,
      "fernseh": 8391,
      "hastalı": 8392,
      "sertifik": 8393,
      "bobby": 8394,
      "odeme": 8395,
      "archimedes": 8396,
      "zihin": 8397,
      "mukemmel": 8398,
      "direnis": 8399,
      "konservatuvarı": 8400,
      "##helm": 8401,
      "aleksandr": 8402,
      "referans": 8403,
      "chicago": 8404,
      "avrupalı": 8405,
      "atmosfer": 8406,
      "hollywood": 8407,
      "hipotez": 8408,
      "malatya": 8409,
      "osetya": 8410,
      "netflix": 8411,
      "76": 8412,
      "86": 8413,
      "aut": 8414,
      "bod": 8415,
      "bacak": 8416,
      "cıl": 8417,
      "cle": 8418,
      "cosk": 8419,
      "dt": 8420,
      "dj": 8421,
      "dum": 8422,
      "diana": 8423,
      "eti": 8424,
      "flar": 8425,
      "fall": 8426,
      "gey": 8427,
      "guy": 8428,
      "hung": 8429,
      "ley": 8430,
      "line": 8431,
      "ric": 8432,
      "suy": 8433,
      "yos": 8434,
      "##kın": 8435,
      "##rem": 8436,
      "##oul": 8437,
      "##mit": 8438,
      "##lal": 8439,
      "##lunun": 8440,
      "##dol": 8441,
      "##hak": 8442,
      "##hard": 8443,
      "##tuk": 8444,
      "##yaz": 8445,
      "##pasa": 8446,
      "##cul": 8447,
      "##25": 8448,
      "##anna": 8449,
      "##erg": 8450,
      "##ill": 8451,
      "##ikos": 8452,
      "olun": 8453,
      "olayı": 8454,
      "##imin": 8455,
      "##imir": 8456,
      "##itif": 8457,
      "##aph": 8458,
      "##dıgını": 8459,
      "buhar": 8460,
      "aran": 8461,
      "arama": 8462,
      "##acy": 8463,
      "##abilmesi": 8464,
      "yılların": 8465,
      "inis": 8466,
      "inci": 8467,
      "##lia": 8468,
      "##leridir": 8469,
      "##tıras": 8470,
      "turler": 8471,
      "entegr": 8472,
      "asag": 8473,
      "geldiginde": 8474,
      "dondukten": 8475,
      "yaralı": 8476,
      "kullanı": 8477,
      "yasına": 8478,
      "yasama": 8479,
      "##lemistir": 8480,
      "aktr": 8481,
      "yazısı": 8482,
      "uyum": 8483,
      "uyesiydi": 8484,
      "gecerek": 8485,
      "sang": 8486,
      "sanal": 8487,
      "saniye": 8488,
      "halil": 8489,
      "olmasını": 8490,
      "acan": 8491,
      "##inger": 8492,
      "calısmaktadır": 8493,
      "oyunlar": 8494,
      "prop": 8495,
      "princ": 8496,
      "takımdan": 8497,
      "milan": 8498,
      "harc": 8499,
      "ucunc": 8500,
      "degin": 8501,
      "herak": 8502,
      "##gundan": 8503,
      "trakya": 8504,
      "##uye": 8505,
      "komur": 8506,
      "hayran": 8507,
      "##cher": 8508,
      "okum": 8509,
      "ayrılarak": 8510,
      "##ions": 8511,
      "gosteri": 8512,
      "spons": 8513,
      "ulkeleri": 8514,
      "arasından": 8515,
      "yuksekligi": 8516,
      "liga": 8517,
      "maddesi": 8518,
      "senf": 8519,
      "sarkılar": 8520,
      "olusumu": 8521,
      "tamamladıktan": 8522,
      "gucunu": 8523,
      "yasamını": 8524,
      "yetiskin": 8525,
      "mayın": 8526,
      "olusturmak": 8527,
      "dolby": 8528,
      "halkının": 8529,
      "onceleri": 8530,
      "testi": 8531,
      "finali": 8532,
      "shar": 8533,
      "artistik": 8534,
      "binlerce": 8535,
      "uzunlugunda": 8536,
      "italia": 8537,
      "##perest": 8538,
      "degisir": 8539,
      "silin": 8540,
      "##achus": 8541,
      "sovaly": 8542,
      "kisidir": 8543,
      "aracları": 8544,
      "yukselen": 8545,
      "filtr": 8546,
      "iliskilendir": 8547,
      "edebilir": 8548,
      "dalg": 8549,
      "programlama": 8550,
      "ulasan": 8551,
      "ulasmıstır": 8552,
      "magara": 8553,
      "ahsap": 8554,
      "kaynaklı": 8555,
      "kitapta": 8556,
      "master": 8557,
      "gorunum": 8558,
      "boya": 8559,
      "tiyatroları": 8560,
      "sound": 8561,
      "bayr": 8562,
      "catıs": 8563,
      "doug": 8564,
      "yanıt": 8565,
      "bizim": 8566,
      "hukumetinin": 8567,
      "sivas": 8568,
      "bugune": 8569,
      "iskandinav": 8570,
      "sutun": 8571,
      "araba": 8572,
      "yuruttu": 8573,
      "pakistan": 8574,
      "tony": 8575,
      "kategorisinde": 8576,
      "siddetli": 8577,
      "abdullah": 8578,
      "duzeyinde": 8579,
      "ayırt": 8580,
      "heykeltıras": 8581,
      "musabak": 8582,
      "servis": 8583,
      "cekirde": 8584,
      "depol": 8585,
      "endustriyel": 8586,
      "muhalef": 8587,
      "jerry": 8588,
      "roket": 8589,
      "ceyrek": 8590,
      "mevkiinde": 8591,
      "club": 8592,
      "abhazya": 8593,
      "kapsayan": 8594,
      "college": 8595,
      "francisco": 8596,
      "nijer": 8597,
      "alabama": 8598,
      "stephen": 8599,
      "broadway": 8600,
      "maksimum": 8601,
      "cevrimici": 8602,
      "intikam": 8603,
      "sponsor": 8604,
      "83": 8605,
      "800": 8606,
      "aur": 8607,
      "bad": 8608,
      "bla": 8609,
      "bilm": 8610,
      "bafta": 8611,
      "cy": 8612,
      "cit": 8613,
      "cayı": 8614,
      "cast": 8615,
      "dalı": 8616,
      "dvd": 8617,
      "egr": 8618,
      "gut": 8619,
      "jay": 8620,
      "lav": 8621,
      "lenin": 8622,
      "pam": 8623,
      "pto": 8624,
      "porn": 8625,
      "roz": 8626,
      "sip": 8627,
      "tra": 8628,
      "tib": 8629,
      "tif": 8630,
      "tre": 8631,
      "ucu": 8632,
      "va": 8633,
      "yoz": 8634,
      "zira": 8635,
      "##mesinde": 8636,
      "##sy": 8637,
      "##zer": 8638,
      "##ск": 8639,
      "##arma": 8640,
      "##endir": 8641,
      "##akan": 8642,
      "##akat": 8643,
      "##esyon": 8644,
      "##esaj": 8645,
      "##isz": 8646,
      "##dac": 8647,
      "##ekte": 8648,
      "##eta": 8649,
      "##uldugu": 8650,
      "olcek": 8651,
      "dec": 8652,
      "##umi": 8653,
      "##emeyen": 8654,
      "ang": 8655,
      "anak": 8656,
      "tarif": 8657,
      "##ımlı": 8658,
      "karma": 8659,
      "yapma": 8660,
      "yapının": 8661,
      "yapılması": 8662,
      "yaparken": 8663,
      "##avat": 8664,
      "kuru": 8665,
      "##kien": 8666,
      "oyku": 8667,
      "esles": 8668,
      "eston": 8669,
      "verilm": 8670,
      "verimli": 8671,
      "ulasım": 8672,
      "amp": 8673,
      "kadının": 8674,
      "devir": 8675,
      "bulunmus": 8676,
      "deng": 8677,
      "acar": 8678,
      "atoly": 8679,
      "##ingham": 8680,
      "proto": 8681,
      "varlıgı": 8682,
      "yuzde": 8683,
      "serisinin": 8684,
      "seker": 8685,
      "sekli": 8686,
      "tren": 8687,
      "bolgeyi": 8688,
      "##tures": 8689,
      "odası": 8690,
      "chris": 8691,
      "okuma": 8692,
      "duzeni": 8693,
      "kaplan": 8694,
      "devletin": 8695,
      "azın": 8696,
      "sehre": 8697,
      "gostermek": 8698,
      "ceken": 8699,
      "ulkelerde": 8700,
      "koydu": 8701,
      "direnc": 8702,
      "dısındaki": 8703,
      "##abilirler": 8704,
      "icermektedir": 8705,
      "maliyet": 8706,
      "sung": 8707,
      "android": 8708,
      "kadınların": 8709,
      "sorf": 8710,
      "albumunu": 8711,
      "getirilen": 8712,
      "getirmistir": 8713,
      "getirilmistir": 8714,
      "kolon": 8715,
      "sarn": 8716,
      "onculuk": 8717,
      "hata": 8718,
      "sevk": 8719,
      "sehirde": 8720,
      "kırsal": 8721,
      "yengec": 8722,
      "hareketleri": 8723,
      "cenaz": 8724,
      "duruma": 8725,
      "yerlesti": 8726,
      "romantik": 8727,
      "ogretmeni": 8728,
      "mater": 8729,
      "iliskileri": 8730,
      "kose": 8731,
      "##medigi": 8732,
      "##cole": 8733,
      "kaynakları": 8734,
      "kaynaklarda": 8735,
      "hizmete": 8736,
      "kararnam": 8737,
      "##ska": 8738,
      "gonderdi": 8739,
      "dunyadaki": 8740,
      "sıkı": 8741,
      "degildi": 8742,
      "hazırlanan": 8743,
      "boston": 8744,
      "devral": 8745,
      "bahc": 8746,
      "sams": 8747,
      "numarası": 8748,
      "##phy": 8749,
      "borc": 8750,
      "defn": 8751,
      "kahv": 8752,
      "memlek": 8753,
      "topraklarına": 8754,
      "##mamaktadır": 8755,
      "##demli": 8756,
      "orneklem": 8757,
      "kume": 8758,
      "kulupler": 8759,
      "cozun": 8760,
      "muhendisi": 8761,
      "birbirinden": 8762,
      "suclu": 8763,
      "isgali": 8764,
      "##dogusunda": 8765,
      "first": 8766,
      "donusum": 8767,
      "dogrusal": 8768,
      "1886": 8769,
      "london": 8770,
      "protok": 8771,
      "kanalında": 8772,
      "ziyade": 8773,
      "cephe": 8774,
      "ayaklan": 8775,
      "sorunları": 8776,
      "basbakanlık": 8777,
      "kolayca": 8778,
      "hill": 8779,
      "feat": 8780,
      "christian": 8781,
      "family": 8782,
      "kongre": 8783,
      "hastalıgı": 8784,
      "govde": 8785,
      "##conn": 8786,
      "porsche": 8787,
      "tolkien": 8788,
      "rakam": 8789,
      "tanrısı": 8790,
      "kanser": 8791,
      "putperest": 8792,
      "sscb": 8793,
      "roger": 8794,
      "sogutma": 8795,
      "dakikada": 8796,
      "yumurta": 8797,
      "hırvatistan": 8798,
      "gabri": 8799,
      "lady": 8800,
      "eglence": 8801,
      "suvari": 8802,
      "gıda": 8803,
      "ioann": 8804,
      "elizabeth": 8805,
      "etimoloji": 8806,
      "ambrose": 8807,
      "600": 8808,
      "81": 8809,
      "94": 8810,
      "award": 8811,
      "cup": 8812,
      "fuz": 8813,
      "fib": 8814,
      "gy": 8815,
      "gan": 8816,
      "gil": 8817,
      "hent": 8818,
      "kand": 8819,
      "klin": 8820,
      "long": 8821,
      "mı": 8822,
      "miz": 8823,
      "mult": 8824,
      "nan": 8825,
      "niz": 8826,
      "pc": 8827,
      "sha": 8828,
      "teg": 8829,
      "viy": 8830,
      "vizyon": 8831,
      "women": 8832,
      "yy": 8833,
      "yiy": 8834,
      "yumus": 8835,
      "##nun": 8836,
      "##nis": 8837,
      "##mid": 8838,
      "##sp": 8839,
      "##wis": 8840,
      "##work": 8841,
      "##ged": 8842,
      "##goz": 8843,
      "##yu": 8844,
      "##yer": 8845,
      "##bab": 8846,
      "##bini": 8847,
      "##bilim": 8848,
      "##ος": 8849,
      "##arch": 8850,
      "##inus": 8851,
      "##enti": 8852,
      "##larus": 8853,
      "##aker": 8854,
      "##onna": 8855,
      "##etiyle": 8856,
      "##amasına": 8857,
      "olen": 8858,
      "##iyal": 8859,
      "dead": 8860,
      "dedi": 8861,
      "deep": 8862,
      "depart": 8863,
      "##ited": 8864,
      "alk": 8865,
      "alıp": 8866,
      "##igit": 8867,
      "##lanarak": 8868,
      "isi": 8869,
      "arif": 8870,
      "##agen": 8871,
      "ini": 8872,
      "##ogul": 8873,
      "##omut": 8874,
      "##evor": 8875,
      "onune": 8876,
      "##malarını": 8877,
      "##ope": 8878,
      "##oyd": 8879,
      "kure": 8880,
      "kurd": 8881,
      "gelip": 8882,
      "parad": 8883,
      "parmak": 8884,
      "gener": 8885,
      "##eginin": 8886,
      "kalmıs": 8887,
      "kaleme": 8888,
      "kaleci": 8889,
      "yaralandı": 8890,
      "kadir": 8891,
      "kullanmıstır": 8892,
      "gregor": 8893,
      "##lastik": 8894,
      "uyeler": 8895,
      "takas": 8896,
      "sahib": 8897,
      "yayıl": 8898,
      "eklen": 8899,
      "ekst": 8900,
      "ikna": 8901,
      "arasındadır": 8902,
      "kazım": 8903,
      "zamana": 8904,
      "yuzu": 8905,
      "bolgelerinde": 8906,
      "abbas": 8907,
      "korku": 8908,
      "spe": 8909,
      "gosterdigi": 8910,
      "futbola": 8911,
      "force": 8912,
      "forması": 8913,
      "128": 8914,
      "buradan": 8915,
      "cuma": 8916,
      "light": 8917,
      "sistemin": 8918,
      "bolumler": 8919,
      "savasa": 8920,
      "lej": 8921,
      "istis": 8922,
      "istedi": 8923,
      "yuzyıla": 8924,
      "sunuc": 8925,
      "sunuldu": 8926,
      "osmanlılar": 8927,
      "##ugo": 8928,
      "110": 8929,
      "barb": 8930,
      "galic": 8931,
      "bunları": 8932,
      "##iew": 8933,
      "shim": 8934,
      "1913": 8935,
      "baskanlıgına": 8936,
      "baskanlıgında": 8937,
      "##ofya": 8938,
      "afrik": 8939,
      "yururlu": 8940,
      "cocukların": 8941,
      "simet": 8942,
      "anlamında": 8943,
      "yukselmistir": 8944,
      "doguda": 8945,
      "##bridge": 8946,
      "cevrili": 8947,
      "delta": 8948,
      "anlasmaz": 8949,
      "sirketinin": 8950,
      "sakson": 8951,
      "botan": 8952,
      "guvenligi": 8953,
      "ozelliklerini": 8954,
      "bayram": 8955,
      "wilhelm": 8956,
      "darbe": 8957,
      "derecesi": 8958,
      "direktorleri": 8959,
      "topraklarında": 8960,
      "adaylık": 8961,
      "omur": 8962,
      "belarus": 8963,
      "sultanı": 8964,
      "sanatcılar": 8965,
      "elestiriler": 8966,
      "cemal": 8967,
      "ogretmenlik": 8968,
      "1878": 8969,
      "henri": 8970,
      "hitit": 8971,
      "muharebe": 8972,
      "nitel": 8973,
      "little": 8974,
      "levha": 8975,
      "alfred": 8976,
      "pear": 8977,
      "phone": 8978,
      "kıyısında": 8979,
      "\"),": 8980,
      "psikolojik": 8981,
      "bireysel": 8982,
      "homo": 8983,
      "pozitif": 8984,
      "yahudilerin": 8985,
      "divan": 8986,
      "istegi": 8987,
      "sozcugu": 8988,
      "hawai": 8989,
      "tırman": 8990,
      "oykusu": 8991,
      "victoria": 8992,
      "kastamonu": 8993,
      "vucud": 8994,
      "covid": 8995,
      "canakkale": 8996,
      "glob": 8997,
      "cıg": 8998,
      "kudus": 8999,
      "heinrich": 9000,
      "olaganustu": 9001,
      "pasifik": 9002,
      "vladimir": 9003,
      "margaret": 9004,
      "nahcıvan": 9005,
      "ayasofya": 9006,
      "aktris": 9007,
      "materyal": 9008,
      "yururluge": 9009,
      ".|": 9010,
      "aer": 9011,
      "alem": 9012,
      "bi": 9013,
      "bach": 9014,
      "blo": 9015,
      "hul": 9016,
      "house": 9017,
      "ja": 9018,
      "kacak": 9019,
      "ly": 9020,
      "lah": 9021,
      "nich": 9022,
      "pac": 9023,
      "puff": 9024,
      "rh": 9025,
      "rick": 9026,
      "set": 9027,
      "sih": 9028,
      "sansı": 9029,
      "tl": 9030,
      "teb": 9031,
      "tasım": 9032,
      "viv": 9033,
      "vii": 9034,
      "wir": 9035,
      "wall": 9036,
      "zur": 9037,
      "zem": 9038,
      "##no": 9039,
      "##nin": 9040,
      "##riz": 9041,
      "##rinin": 9042,
      "##oci": 9043,
      "##magı": 9044,
      "##lop": 9045,
      "##lileri": 9046,
      "##db": 9047,
      "##dig": 9048,
      "##hine": 9049,
      "##yat": 9050,
      "##pg": 9051,
      "##pat": 9052,
      "##bor": 9053,
      "##beri": 9054,
      "##35": 9055,
      "##irlik": 9056,
      "##ilk": 9057,
      "##alog": 9058,
      "##estan": 9059,
      "##ektif": 9060,
      "##orta": 9061,
      "birisidir": 9062,
      "##usunde": 9063,
      "##olan": 9064,
      "##olution": 9065,
      "olacagını": 9066,
      "##imal": 9067,
      "##ement": 9068,
      "alıyor": 9069,
      "##edy": 9070,
      "##ista": 9071,
      "##ister": 9072,
      "are": 9073,
      "##izmi": 9074,
      "##lıyor": 9075,
      "##dip": 9076,
      "##diven": 9077,
      "tarik": 9078,
      "##ome": 9079,
      "##oku": 9080,
      "##okim": 9081,
      "##okrat": 9082,
      "sonlandır": 9083,
      "karada": 9084,
      "yapmayı": 9085,
      "yaptıkları": 9086,
      "turhan": 9087,
      "gorenler": 9088,
      "icinden": 9089,
      "unu": 9090,
      "kulesi": 9091,
      "asama": 9092,
      "yerler": 9093,
      "##lesme": 9094,
      "escin": 9095,
      "##ozor": 9096,
      "ilkokulu": 9097,
      "donald": 9098,
      "kalit": 9099,
      "akın": 9100,
      "yazıl": 9101,
      "saniy": 9102,
      "olmasa": 9103,
      "tanesi": 9104,
      "##0000": 9105,
      "muf": 9106,
      "prag": 9107,
      "temas": 9108,
      "harper": 9109,
      "##station": 9110,
      "ucagın": 9111,
      "prov": 9112,
      "ikil": 9113,
      "krizi": 9114,
      "derya": 9115,
      "gorevlerinde": 9116,
      "chap": 9117,
      "girer": 9118,
      "girdigi": 9119,
      "okur": 9120,
      "##masyon": 9121,
      "##ept": 9122,
      "##elius": 9123,
      "sarkısıyla": 9124,
      "space": 9125,
      "sayılabilir": 9126,
      "yolda": 9127,
      "gostermistir": 9128,
      "gosterime": 9129,
      "hazar": 9130,
      "suik": 9131,
      "salonu": 9132,
      "soyundan": 9133,
      "buradaki": 9134,
      "belirlenmistir": 9135,
      "madonna": 9136,
      "polonyalı": 9137,
      "kendisinin": 9138,
      "kendisinden": 9139,
      "acıkca": 9140,
      "hassas": 9141,
      "bolumleri": 9142,
      "bolumunden": 9143,
      "savasları": 9144,
      "savastan": 9145,
      "telgr": 9146,
      "onemlidir": 9147,
      "##uga": 9148,
      "sorunu": 9149,
      "sorgul": 9150,
      "olusturul": 9151,
      "gazian": 9152,
      "##dukları": 9153,
      "kuzeydogu": 9154,
      "shak": 9155,
      "arttır": 9156,
      "artvin": 9157,
      "patrik": 9158,
      "sehirler": 9159,
      "otto": 9160,
      "alınabilir": 9161,
      "baglıydı": 9162,
      "tanımlar": 9163,
      "tanımlanan": 9164,
      "tanımlamak": 9165,
      "sullivan": 9166,
      "##...": 9167,
      "yapılar": 9168,
      "dinam": 9169,
      "##yetik": 9170,
      "islemciler": 9171,
      "komuta": 9172,
      "karakterleri": 9173,
      "bırakmıstır": 9174,
      "eleman": 9175,
      "ordusunun": 9176,
      "gorunen": 9177,
      "heat": 9178,
      "km2": 9179,
      "south": 9180,
      "gemisi": 9181,
      "gerceklestirdi": 9182,
      "biyolojik": 9183,
      "belirtilmistir": 9184,
      "sınıfı": 9185,
      "minar": 9186,
      "cezası": 9187,
      "1909": 9188,
      "direktorler": 9189,
      "sanatcıları": 9190,
      "ornekleri": 9191,
      "1893": 9192,
      "format": 9193,
      "kumandan": 9194,
      "hukuku": 9195,
      "fesh": 9196,
      "yatak": 9197,
      "anlatır": 9198,
      "anlatılır": 9199,
      "fizikci": 9200,
      "optik": 9201,
      "garcia": 9202,
      "times": 9203,
      "turudur": 9204,
      "##general": 9205,
      "turnuvada": 9206,
      "nitelendir": 9207,
      "cihazın": 9208,
      "netic": 9209,
      "parcaları": 9210,
      "yavru": 9211,
      "felsefesi": 9212,
      "sadraz": 9213,
      "baslattı": 9214,
      "step": 9215,
      "olcum": 9216,
      "statisz": 9217,
      "dagıtım": 9218,
      "famil": 9219,
      "ayrıldıktan": 9220,
      "akrab": 9221,
      "sosyoloji": 9222,
      "group": 9223,
      "tugayı": 9224,
      "oct": 9225,
      "santral": 9226,
      "dostluk": 9227,
      "baglantısı": 9228,
      "baslıklı": 9229,
      "biber": 9230,
      "misaf": 9231,
      "gradac": 9232,
      "etkilesim": 9233,
      "kapasit": 9234,
      "uzanır": 9235,
      "yansıt": 9236,
      "stadyumu": 9237,
      "astra": 9238,
      "animasyon": 9239,
      "bisiklet": 9240,
      "huzur": 9241,
      "kuyruk": 9242,
      "##ıntılı": 9243,
      "iphone": 9244,
      "francois": 9245,
      "dogrultusunda": 9246,
      "ardahan": 9247,
      "gerekcesiyle": 9248,
      "tuccar": 9249,
      "douglas": 9250,
      "lejyon": 9251,
      "afrikalı": 9252,
      "escinsel": 9253,
      "gaziantep": 9254,
      "sadrazam": 9255,
      "statisztika": 9256,
      "!\"": 9257,
      "87": 9258,
      "bm": 9259,
      "dc": 9260,
      "dul": 9261,
      "ecole": 9262,
      "gust": 9263,
      "hoh": 9264,
      "ima": 9265,
      "itir": 9266,
      "jers": 9267,
      "kev": 9268,
      "koj": 9269,
      "kagan": 9270,
      "lek": 9271,
      "lap": 9272,
      "linc": 9273,
      "moz": 9274,
      "maya": 9275,
      "melik": 9276,
      "nation": 9277,
      "our": 9278,
      "ote": 9279,
      "ring": 9280,
      "rıf": 9281,
      "taz": 9282,
      "vası": 9283,
      "wood": 9284,
      "yit": 9285,
      "zeki": 9286,
      "zevk": 9287,
      "##nak": 9288,
      "##ao": 9289,
      "##kut": 9290,
      "##king": 9291,
      "##mine": 9292,
      "##so": 9293,
      "##set": 9294,
      "##dim": 9295,
      "##dinde": 9296,
      "##win": 9297,
      "##yp": 9298,
      "##cekten": 9299,
      "##bel": 9300,
      "##200": 9301,
      "##asu": 9302,
      "##esar": 9303,
      "##isiz": 9304,
      "##eller": 9305,
      "##eklerin": 9306,
      "##orus": 9307,
      "##att": 9308,
      "birini": 9309,
      "##ikleri": 9310,
      "##ush": 9311,
      "##ima": 9312,
      "death": 9313,
      "##its": 9314,
      "##iten": 9315,
      "##emek": 9316,
      "##ape": 9317,
      "bucuk": 9318,
      "##omol": 9319,
      "icat": 9320,
      "##icia": 9321,
      "##ilmesiyle": 9322,
      "yapısal": 9323,
      "##tana": 9324,
      "##kie": 9325,
      "oyle": 9326,
      "oylama": 9327,
      "yerleri": 9328,
      "yerlerde": 9329,
      "tarihindeki": 9330,
      "##erse": 9331,
      "##ovo": 9332,
      "kullanmaktadır": 9333,
      "takdir": 9334,
      "##kent": 9335,
      "olmay": 9336,
      "olmalıdır": 9337,
      "atarak": 9338,
      "freder": 9339,
      "geregi": 9340,
      "calısırken": 9341,
      "harp": 9342,
      "kaza": 9343,
      "herbis": 9344,
      "evde": 9345,
      "bolgeler": 9346,
      "bolgesindeki": 9347,
      "yonetici": 9348,
      "alanına": 9349,
      "giriste": 9350,
      "danısma": 9351,
      "##retti": 9352,
      "saglamıstır": 9353,
      "digeri": 9354,
      "albay": 9355,
      "bran": 9356,
      "sayılır": 9357,
      "yolculu": 9358,
      "sanatları": 9359,
      "sanatcının": 9360,
      "salz": 9361,
      "cekilmistir": 9362,
      "soyadı": 9363,
      "metro": 9364,
      "etkiler": 9365,
      "askın": 9366,
      "##lıgından": 9367,
      "polim": 9368,
      "manisa": 9369,
      "dısına": 9370,
      "176": 9371,
      "yarıstı": 9372,
      "insanın": 9373,
      "teror": 9374,
      "leo": 9375,
      "140": 9376,
      "yasamak": 9377,
      "albumler": 9378,
      "olusturmaktadır": 9379,
      "bart": 9380,
      "cıkarıldı": 9381,
      "cıkardıgı": 9382,
      "mesle": 9383,
      "yorunge": 9384,
      "patlak": 9385,
      "##icius": 9386,
      "odulune": 9387,
      "drom": 9388,
      "otuz": 9389,
      "degisen": 9390,
      "uygulanan": 9391,
      "yenilik": 9392,
      "##ario": 9393,
      "newton": 9394,
      "koal": 9395,
      "gunumuzdeki": 9396,
      "kuvvetler": 9397,
      "programları": 9398,
      "ulastır": 9399,
      "##tive": 9400,
      "okulun": 9401,
      "islemi": 9402,
      "dikey": 9403,
      "toreni": 9404,
      "temsilcileri": 9405,
      "bırakıldı": 9406,
      "elec": 9407,
      "agırlıgı": 9408,
      "batman": 9409,
      "tenis": 9410,
      "kurtul": 9411,
      "core": 9412,
      "belirtmistir": 9413,
      "kitabında": 9414,
      "defter": 9415,
      "adlandırıldı": 9416,
      "hamam": 9417,
      "oldurul": 9418,
      "1899": 9419,
      "murphy": 9420,
      "##yaspor": 9421,
      "organize": 9422,
      "school": 9423,
      "1877": 9424,
      "kiev": 9425,
      "redded": 9426,
      "sutra": 9427,
      "yemen": 9428,
      "parcasıdır": 9429,
      "ova": 9430,
      "firma": 9431,
      "mahkeme": 9432,
      "surecte": 9433,
      "katılımını": 9434,
      "dikkatini": 9435,
      "playstation": 9436,
      "etkileyen": 9437,
      "biciminde": 9438,
      "hacette": 9439,
      "canlandırdıgı": 9440,
      "oynandı": 9441,
[...]
